7E7D
7167
67AF
601A
59F8
54E1
5091
4CDA
499B
46BD
442F
41E3
3FCF
3DEA
3C2D
3A95
391B
37BC
3675
3544
3426
331A
321D
312E
304B
2F75
2EAA
2DE8
2D2F
2C7F
2BD7
2B36
2A9C
2A08
2979
28F1
286D
27EF
2774
26FF
268D
261F
25B4
254D
24E9
2489
242B
23D0
2377
2321
22CE
227D
222E
21E1
2196
214D
2105
20C0
207C
203A
1FF9
1FBA
1F7D
1F40
1F05
1ECC
1E93
1E5C
1E26
1DF1
1DBD
1D8A
1D58
1D27
1CF7
1CC8
1C9A
1C6D
1C41
1C15
1BEA
1BC0
1B96
1B6E
1B46
1B1F
1AF8
1AD2
1AAD
1A88
1A64
1A40
1A1D
19FA
19D8
19B7
1996
1975
1955
1936
1917
18F8
18DA
18BC
189F
1882
1865
1849
182D
1812
17F7
17DC
17C2
17A8
178E
1775
175C
1743
172B
1712
16FB
16E3
16CC
16B5
169E
1687
1671
165B
1646
1630
161B
1606
15F1
15DD
15C8
15B4
15A0
158D
1579
1566
1553
1540
152E
151B
1509
14F7
14E5
14D3
14C1
14B0
149F
148E
147D
146C
145C
144B
143B
142B
141B
140B
13FC
13EC
13DD
13CD
13BE
13AF
13A0
1392
1383
1375
1366
1358
134A
133C
132E
1321
1313
1305
12F8
12EB
12DE
12D1
12C4
12B7
12AA
129D
1291
1284
1278
126C
1260
1253
1247
123C
1230
1224
1218
120D
1202
11F6
11EB
11E0
11D5
11CA
11BF
11B4
11A9
119E
1194
1189
117E
1174
116A
115F
1155
114B
1141
1137
112D
1123
1119
1110
1106
10FC
10F3
10E9
10E0
10D7
10CD
10C4
10BB
10B2
10A9
10A0
1097
108E
1085
107C
1073
106B
1062
105A
1051
1049
1040
1038
1030
1027
101F
1017
100F
1007
0FFF
0FF7
0FEF
0FE7
0FDF
0FD7
0FD0
0FC8
0FC0
0FB9
0FB1
0FAA
0FA2
0F9B
0F93
0F8C
0F85
0F7D
0F76
0F6F
0F68
0F60
0F59
0F52
0F4B
0F44
0F3D
0F37
0F30
0F29
0F22
0F1B
0F15
0F0E
0F07
0F01
0EFA
0EF4
0EED
0EE7
0EE0
0EDA
0ED3
0ECD
0EC7
0EC0
0EBA
0EB4
0EAE
0EA7
0EA1
0E9B
0E95
0E8F
0E89
0E83
0E7D
0E77
0E71
0E6B
0E66
0E60
0E5A
0E54
0E4F
0E49
0E43
0E3D
0E38
0E32
0E2D
0E27
0E22
0E1C
0E17
0E11
0E0C
0E06
0E01
0DFC
0DF6
0DF1
0DEC
0DE6
0DE1
0DDC
0DD7
0DD2
0DCC
0DC7
0DC2
0DBD
0DB8
0DB3
0DAE
0DA9
0DA4
0D9F
0D9A
0D95
0D90
0D8C
0D87
0D82
0D7D
0D78
0D74
0D6F
0D6A
0D65
0D61
0D5C
0D57
0D53
0D4E
0D4A
0D45
0D40
0D3C
0D37
0D33
0D2E
0D2A
0D25
0D21
0D1D
0D18
0D14
0D0F
0D0B
0D07
0D02
0CFE
0CFA
0CF6
0CF1
0CED
0CE9
0CE5
0CE1
0CDC
0CD8
0CD4
0CD0
0CCC
0CC8
0CC4
0CC0
0CBC
0CB8
0CB4
0CB0
0CAC
0CA8
0CA4
0CA0
0C9C
0C98
0C94
0C90
0C8C
0C88
0C85
0C81
0C7D
0C79
0C75
0C72
0C6E
0C6A
0C66
0C63
0C5F
0C5B
0C58
0C54
0C50
0C4D
0C49
0C45
0C42
0C3E
0C3B
0C37
0C33
0C30
0C2C
0C29
0C25
0C22
0C1E
0C1B
0C17
0C14
0C11
0C0D
0C0A
0C06
0C03
0C00
0BFC
0BF9
0BF5
0BF2
0BEF
0BEB
0BE8
0BE5
0BE2
0BDE
0BDB
0BD8
0BD5
0BD1
0BCE
0BCB
0BC8
0BC5
0BC1
0BBE
0BBB
0BB8
0BB5
0BB2
0BAE
0BAB
0BA8
0BA5
0BA2
0B9F
0B9C
0B99
0B96
0B93
0B90
0B8D
0B8A
0B87
0B84
0B81
0B7E
0B7B
0B78
0B75
0B72
0B6F
0B6C
0B69
0B66
0B64
0B61
0B5E
0B5B
0B58
0B55
0B52
0B50
0B4D
0B4A
0B47
0B44
0B42
0B3F
0B3C
0B39
0B36
0B34
0B31
0B2E
0B2B
0B29
0B26
0B23
0B21
0B1E
0B1B
0B19
0B16
0B13
0B11
0B0E
0B0B
0B09
0B06
0B03
0B01
0AFE
0AFC
0AF9
0AF7
0AF4
0AF1
0AEF
0AEC
0AEA
0AE7
0AE5
0AE2
0AE0
0ADD
0ADB
0AD8
0AD6
0AD3
0AD1
0ACE
0ACC
0AC9
0AC7
0AC4
0AC2
0AC0
0ABD
0ABB
0AB8
0AB6
0AB3
0AB1
0AAF
0AAC
0AAA
0AA8
0AA5
0AA3
0AA1
0A9E
0A9C
0A9A
0A97
0A95
0A93
0A90
0A8E
0A8C
0A89
0A87
0A85
0A83
0A80
0A7E
0A7C
0A79
0A77
0A75
0A73
0A71
0A6E
0A6C
0A6A
0A68
0A66
0A63
0A61
0A5F
0A5D
0A5B
0A58
0A56
0A54
0A52
0A50
0A4E
0A4C
0A49
0A47
0A45
0A43
0A41
0A3F
0A3D
0A3B
0A39
0A36
0A34
0A32
0A30
0A2E
0A2C
0A2A
0A28
0A26
0A24
0A22
0A20
0A1E
0A1C
0A1A
0A18
0A16
0A14
0A12
0A10
0A0E
0A0C
0A0A
0A08
0A06
0A04
0A02
0A00
09FE
09FC
09FA
09F8
09F6
09F4
09F2
09F1
09EF
09ED
09EB
09E9
09E7
09E5
09E3
09E1
09DF
09DE
09DC
09DA
09D8
09D6
09D4
09D2
09D1
09CF
09CD
09CB
09C9
09C7
09C6
09C4
09C2
09C0
09BE
09BC
09BB
09B9
09B7
09B5
09B3
09B2
09B0
09AE
09AC
09AB
09A9
09A7
09A5
09A4
09A2
09A0
099E
099D
099B
0999
0997
0996
0994
0992
0991
098F
098D
098B
098A
0988
0986
0985
0983
0981
0980
097E
097C
097B
0979
0977
0976
0974
0972
0971
096F
096D
096C
096A
0968
0967
0965
0964
0962
0960
095F
095D
095C
095A
0958
0957
0955
0954
0952
0950
094F
094D
094C
094A
0949
0947
0945
0944
0942
0941
093F
093E
093C
093B
0939
0938
0936
0935
0933
0931
0930
092E
092D
092B
092A
0928
0927
0925
0924
0922
0921
091F
091E
091D
091B
091A
0918
0917
0915
0914
0912
0911
090F
090E
090C
090B
090A
0908
0907
0905
0904
0902
0901
08FF
08FE
08FD
08FB
08FA
08F8
08F7
08F6
08F4
08F3
08F1
08F0
08EF
08ED
08EC
08EA
08E9
08E8
08E6
08E5
08E4
08E2
08E1
08DF
08DE
08DD
08DB
08DA
08D9
08D7
08D6
08D5
08D3
08D2
08D1
08CF
08CE
08CD
08CB
08CA
08C9
08C7
08C6
08C5
08C3
08C2
08C1
08BF
08BE
08BD
08BB
08BA
08B9
08B8
08B6
08B5
08B4
08B2
08B1
08B0
08AF
08AD
08AC
08AB
08A9
08A8
08A7
08A6
08A4
08A3
08A2
08A1
089F
089E
089D
089C
089A
0899
0898
0897
0895
0894
0893
0892
0890
088F
088E
088D
088C
088A
0889
0888
0887
0885
0884
0883
0882
0881
087F
087E
087D
087C
087B
0879
0878
0877
0876
0875
0874
0872
0871
0870
086F
086E
086D
086B
086A
0869
0868
0867
0866
0864
0863
0862
0861
0860
085F
085E
085C
085B
085A
0859
0858
0857
0856
0854
0853
0852
0851
0850
084F
084E
084D
084B
084A
0849
0848
0847
0846
0845
0844
0843
0841
0840
083F
083E
083D
083C
083B
083A
0839
0838
0837
0835
0834
0833
0832
0831
0830
082F
082E
082D
082C
082B
082A
0829
0828
0826
0825
0824
0823
0822
0821
0820
081F
081E
081D
081C
081B
081A
0819
0818
0817
0816
0815
0814
0813
0812
0811
0810
080F
080E
080D
080C
080A
0809
0808
0807
0806
0805
0804
0803
0802
0801
0800
07FF
07FE
07FD
07FC
07FB
07FA
07F9
07F8
07F7
07F6
07F5
07F4
07F4
07F3
07F2
07F1
07F0
07EF
07EE
07ED
07EC
07EB
07EA
07E9
07E8
07E7
07E6
07E5
07E4
07E3
07E2
07E1
07E0
07DF
07DE
07DD
07DC
07DB
07DA
07D9
07D9
07D8
07D7
07D6
07D5
07D4
07D3
07D2
07D1
07D0
07CF
07CE
07CD
07CC
07CB
07CB
07CA
07C9
07C8
07C7
07C6
07C5
07C4
07C3
07C2
07C1
07C0
07C0
07BF
07BE
07BD
07BC
07BB
07BA
07B9
07B8
07B7
07B7
07B6
07B5
07B4
07B3
07B2
07B1
07B0
07AF
07AE
07AE
07AD
07AC
07AB
07AA
07A9
07A8
07A7
07A7
07A6
07A5
07A4
07A3
07A2
07A1
07A0
07A0
079F
079E
079D
079C
079B
079A
079A
0799
0798
0797
0796
0795
0794
0794
0793
0792
0791
0790
078F
078E
078E
078D
078C
078B
078A
0789
0789
0788
0787
0786
0785
0784
0784
0783
0782
0781
0780
077F
077F
077E
077D
077C
077B
077B
077A
0779
0778
0777
0776
0776
0775
0774
0773
0772
0772
0771
0770
076F
076E
076E
076D
076C
076B
076A
076A
0769
0768
0767
0766
0766
0765
0764
0763
0762
0762
0761
0760
075F
075F
075E
075D
075C
075B
075B
075A
0759
0758
0758
0757
0756
0755
0754
0754
0753
0752
0751
0751
0750
074F
074E
074E
074D
074C
074B
074B
074A
0749
0748
0748
0747
0746
0745
0745
0744
0743
0742
0742
0741
0740
073F
073F
073E
073D
073C
073C
073B
073A
0739
0739
0738
0737
0736
0736
0735
0734
0734
0733
0732
0731
0731
0730
072F
072E
072E
072D
072C
072C
072B
072A
0729
0729
0728
0727
0727
0726
0725
0724
0724
0723
0722
0722
0721
0720
071F
071F
071E
071D
071D
071C
071B
071A
071A
0719
0718
0718
0717
0716
0716
0715
0714
0714
0713
0712
0711
0711
0710
070F
070F
070E
070D
070D
070C
070B
070B
070A
0709
0709
0708
0707
0706
0706
0705
0704
0704
0703
0702
0702
0701
0700
0700
06FF
06FE
06FE
06FD
06FC
06FC
06FB
06FA
06FA
06F9
06F8
06F8
06F7
06F6
06F6
06F5
06F4
06F4
06F3
06F2
06F2
06F1
06F1
06F0
06EF
06EF
06EE
06ED
06ED
06EC
06EB
06EB
06EA
06E9
06E9
06E8
06E7
06E7
06E6
06E6
06E5
06E4
06E4
06E3
06E2
06E2
06E1
06E0
06E0
06DF
06DF
06DE
06DD
06DD
06DC
06DB
06DB
06DA
06D9
06D9
06D8
06D8
06D7
06D6
06D6
06D5
06D4
06D4
06D3
06D3
06D2
06D1
06D1
06D0
06D0
06CF
06CE
06CE
06CD
06CC
06CC
06CB
06CB
06CA
06C9
06C9
06C8
06C8
06C7
06C6
06C6
06C5
06C4
06C4
06C3
06C3
06C2
06C1
06C1
06C0
06C0
06BF
06BE
06BE
06BD
06BD
06BC
06BB
06BB
06BA
06BA
06B9
06B9
06B8
06B7
06B7
06B6
06B6
06B5
06B4
06B4
06B3
06B3
06B2
06B1
06B1
06B0
06B0
06AF
06AF
06AE
06AD
06AD
06AC
06AC
06AB
06AA
06AA
06A9
06A9
06A8
06A8
06A7
06A6
06A6
06A5
06A5
06A4
06A4
06A3
06A2
06A2
06A1
06A1
06A0
06A0
069F
069E
069E
069D
069D
069C
069C
069B
069A
069A
0699
0699
0698
0698
0697
0697
0696
0695
0695
0694
0694
0693
0693
0692
0692
0691
0690
0690
068F
068F
068E
068E
068D
068D
068C
068B
068B
068A
068A
0689
0689
0688
0688
0687
0687
0686
0685
0685
0684
0684
0683
0683
0682
0682
0681
0681
0680
0680
067F
067E
067E
067D
067D
067C
067C
067B
067B
067A
067A
0679
0679
0678
0678
0677
0676
0676
0675
0675
0674
0674
0673
0673
0672
0672
0671
0671
0670
0670
066F
066F
066E
066E
066D
066D
066C
066C
066B
066A
066A
0669
0669
0668
0668
0667
0667
0666
0666
0665
0665
0664
0664
0663
0663
0662
0662
0661
0661
0660
0660
065F
065F
065E
065E
065D
065D
065C
065C
065B
065B
065A
065A
0659
0659
0658
0658
0657
0657
0656
0656
0655
0655
0654
0654
0653
0653
0652
0652
0651
0651
0650
0650
064F
064F
064E
064E
064D
064D
064C
064C
064B
064B
064A
064A
0649
0649
0648
0648
0647
0647
0647
0646
0646
0645
0645
0644
0644
0643
0643
0642
0642
0641
0641
0640
0640
063F
063F
063E
063E
063D
063D
063C
063C
063C
063B
063B
063A
063A
0639
0639
0638
0638
0637
0637
0636
0636
0635
0635
0634
0634
0634
0633
0633
0632
0632
0631
0631
0630
0630
062F
062F
062E
062E
062E
062D
062D
062C
062C
062B
062B
062A
062A
0629
0629
0628
0628
0628
0627
0627
0626
0626
0625
0625
0624
0624
0623
0623
0623
0622
0622
0621
0621
0620
0620
061F
061F
061F
061E
061E
061D
061D
061C
061C
061B
061B
061A
061A
061A
0619
0619
0618
0618
0617
0617
0617
0616
0616
0615
0615
0614
0614
0613
0613
0613
0612
0612
0611
0611
0610
0610
0610
060F
060F
060E
060E
060D
060D
060C
060C
060C
060B
060B
060A
060A
0609
0609
0609
0608
0608
0607
0607
0606
0606
0606
0605
0605
0604
0604
0603
0603
0603
0602
0602
0601
0601
0600
0600
0600
05FF
05FF
05FE
05FE
05FE
05FD
05FD
05FC
05FC
05FB
05FB
05FB
05FA
05FA
05F9
05F9
05F9
05F8
05F8
05F7
05F7
05F6
05F6
05F6
05F5
05F5
05F4
05F4
05F4
05F3
05F3
05F2
05F2
05F1
05F1
05F1
05F0
05F0
05EF
05EF
05EF
05EE
05EE
05ED
05ED
05ED
05EC
05EC
05EB
05EB
05EB
05EA
05EA
05E9
05E9
05E9
05E8
05E8
05E7
05E7
05E7
05E6
05E6
05E5
05E5
05E5
05E4
05E4
05E3
05E3
05E3
05E2
05E2
05E1
05E1
05E1
05E0
05E0
05DF
05DF
05DF
05DE
05DE
05DD
05DD
05DD
05DC
05DC
05DB
05DB
05DB
05DA
05DA
05D9
05D9
05D9
05D8
05D8
05D7
05D7
05D7
05D6
05D6
05D6
05D5
05D5
05D4
05D4
05D4
05D3
05D3
05D2
05D2
05D2
05D1
05D1
05D1
05D0
05D0
05CF
05CF
05CF
05CE
05CE
05CD
05CD
05CD
05CC
05CC
05CC
05CB
05CB
05CA
05CA
05CA
05C9
05C9
05C9
05C8
05C8
05C7
05C7
05C7
05C6
05C6
05C6
05C5
05C5
05C4
05C4
05C4
05C3
05C3
05C3
05C2
05C2
05C1
05C1
05C1
05C0
05C0
05C0
05BF
05BF
05BE
05BE
05BE
05BD
05BD
05BD
05BC
05BC
05BB
05BB
05BB
05BA
05BA
05BA
05B9
05B9
05B9
05B8
05B8
05B7
05B7
05B7
05B6
05B6
05B6
05B5
05B5
05B5
05B4
05B4
05B3
05B3
05B3
05B2
05B2
05B2
05B1
05B1
05B1
05B0
05B0
05AF
05AF
05AF
05AE
05AE
05AE
05AD
05AD
05AD
05AC
05AC
05AC
05AB
05AB
05AA
05AA
05AA
05A9
05A9
05A9
05A8
05A8
05A8
05A7
05A7
05A7
05A6
05A6
05A6
05A5
05A5
05A4
05A4
05A4
05A3
05A3
05A3
05A2
05A2
05A2
05A1
05A1
05A1
05A0
05A0
05A0
059F
059F
059F
059E
059E
059D
059D
059D
059C
059C
059C
059B
059B
059B
059A
059A
059A
0599
0599
0599
0598
0598
0598
0597
0597
0597
0596
0596
0596
0595
0595
0595
0594
0594
0594
0593
0593
0593
0592
0592
0592
0591
0591
0591
0590
0590
058F
058F
058F
058E
058E
058E
058D
058D
058D
058C
058C
058C
058B
058B
058B
058A
058A
058A
0589
0589
0589
0588
0588
0588
0587
0587
0587
0587
0586
0586
0586
0585
0585
0585
0584
0584
0584
0583
0583
0583
0582
0582
0582
0581
0581
0581
0580
0580
0580
057F
057F
057F
057E
057E
057E
057D
057D
057D
057C
057C
057C
057B
057B
057B
057A
057A
057A
0579
0579
0579
0579
0578
0578
0578
0577
0577
0577
0576
0576
0576
0575
0575
0575
0574
0574
0574
0573
0573
0573
0572
0572
0572
0572
0571
0571
0571
0570
0570
0570
056F
056F
056F
056E
056E
056E
056D
056D
056D
056D
056C
056C
056C
056B
056B
056B
056A
056A
056A
0569
0569
0569
0568
0568
0568
0568
0567
0567
0567
0566
0566
0566
0565
0565
0565
0564
0564
0564
0564
0563
0563
0563
0562
0562
0562
0561
0561
0561
0561
0560
0560
0560
055F
055F
055F
055E
055E
055E
055D
055D
055D
055D
055C
055C
055C
055B
055B
055B
055A
055A
055A
055A
0559
0559
0559
0558
0558
0558
0557
0557
0557
0557
0556
0556
0556
0555
0555
0555
0555
0554
0554
0554
0553
0553
0553
0552
0552
0552
0552
0551
0551
0551
0550
0550
0550
0550
054F
054F
054F
054E
054E
054E
054D
054D
054D
054D
054C
054C
054C
054B
054B
054B
054B
054A
054A
054A
0549
0549
0549
0549
0548
0548
0548
0547
0547
0547
0547
0546
0546
0546
0545
0545
0545
0545
0544
0544
0544
0543
0543
0543
0543
0542
0542
0542
0541
0541
0541
0541
0540
0540
0540
053F
053F
053F
053F
053E
053E
053E
053D
053D
053D
053D
053C
053C
053C
053B
053B
053B
053B
053A
053A
053A
053A
0539
0539
0539
0538
0538
0538
0538
0537
0537
0537
0536
0536
0536
0536
0535
0535
0535
0535
0534
0534
0534
0533
0533
0533
0533
0532
0532
0532
0531
0531
0531
0531
0530
0530
0530
0530
052F
052F
052F
052E
052E
052E
052E
052D
052D
052D
052D
052C
052C
052C
052C
052B
052B
052B
052A
052A
052A
052A
0529
0529
0529
0529
0528
0528
0528
0527
0527
0527
0527
0526
0526
0526
0526
0525
0525
0525
0525
0524
0524
0524
0523
0523
0523
0523
0522
0522
0522
0522
0521
0521
0521
0521
0520
0520
0520
0520
051F
051F
051F
051E
051E
051E
051E
051D
051D
051D
051D
051C
051C
051C
051C
051B
051B
051B
051B
051A
051A
051A
051A
0519
0519
0519
0518
0518
0518
0518
0517
0517
0517
0517
0516
0516
0516
0516
0515
0515
0515
0515
0514
0514
0514
0514
0513
0513
0513
0513
0512
0512
0512
0512
0511
0511
0511
0511
0510
0510
0510
0510
050F
050F
050F
050E
050E
050E
050E
050D
050D
050D
050D
050C
050C
050C
050C
050B
050B
050B
050B
050A
050A
050A
050A
0509
0509
0509
0509
0508
0508
0508
0508
0507
0507
0507
0507
0506
0506
0506
0506
0505
0505
0505
0505
0504
0504
0504
0504
0504
0503
0503
0503
0503
0502
0502
0502
0502
0501
0501
0501
0501
0500
0500
0500
0500
04FF
04FF
04FF
04FF
04FE
04FE
04FE
04FE
04FD
04FD
04FD
04FD
04FC
04FC
04FC
04FC
04FB
04FB
04FB
04FB
04FA
04FA
04FA
04FA
04FA
04F9
04F9
04F9
04F9
04F8
04F8
04F8
04F8
04F7
04F7
04F7
04F7
04F6
04F6
04F6
04F6
04F5
04F5
04F5
04F5
04F4
04F4
04F4
04F4
04F4
04F3
04F3
04F3
04F3
04F2
04F2
04F2
04F2
04F1
04F1
04F1
04F1
04F0
04F0
04F0
04F0
04F0
04EF
04EF
04EF
04EF
04EE
04EE
04EE
04EE
04ED
04ED
04ED
04ED
04EC
04EC
04EC
04EC
04EC
04EB
04EB
04EB
04EB
04EA
04EA
04EA
04EA
04E9
04E9
04E9
04E9
04E9
04E8
04E8
04E8
04E8
04E7
04E7
04E7
04E7
04E6
04E6
04E6
04E6
04E6
04E5
04E5
04E5
04E5
04E4
04E4
04E4
04E4
04E3
04E3
04E3
04E3
04E3
04E2
04E2
04E2
04E2
04E1
04E1
04E1
04E1
04E1
04E0
04E0
04E0
04E0
04DF
04DF
04DF
04DF
04DE
04DE
04DE
04DE
04DE
04DD
04DD
04DD
04DD
04DC
04DC
04DC
04DC
04DC
04DB
04DB
04DB
04DB
04DA
04DA
04DA
04DA
04DA
04D9
04D9
04D9
04D9
04D8
04D8
04D8
04D8
04D8
04D7
04D7
04D7
04D7
04D6
04D6
04D6
04D6
04D6
04D5
04D5
04D5
04D5
04D4
04D4
04D4
04D4
04D4
04D3
04D3
04D3
04D3
04D2
04D2
04D2
04D2
04D2
04D1
04D1
04D1
04D1
04D1
04D0
04D0
04D0
04D0
04CF
04CF
04CF
04CF
04CF
04CE
04CE
04CE
04CE
04CD
04CD
04CD
04CD
04CD
04CC
04CC
04CC
04CC
04CC
04CB
04CB
04CB
04CB
04CA
04CA
04CA
04CA
04CA
04C9
04C9
04C9
04C9
04C9
04C8
04C8
04C8
04C8
04C7
04C7
04C7
04C7
04C7
04C6
04C6
04C6
04C6
04C6
04C5
04C5
04C5
04C5
04C4
04C4
04C4
04C4
04C4
04C3
04C3
04C3
04C3
04C3
04C2
04C2
04C2
04C2
04C2
04C1
04C1
04C1
04C1
04C0
04C0
04C0
04C0
04C0
04BF
04BF
04BF
04BF
04BF
04BE
04BE
04BE
04BE
04BE
04BD
04BD
04BD
04BD
04BC
04BC
04BC
04BC
04BC
04BB
04BB
04BB
04BB
04BB
04BA
04BA
04BA
04BA
04BA
04B9
04B9
04B9
04B9
04B9
04B8
04B8
04B8
04B8
04B8
04B7
04B7
04B7
04B7
04B7
04B6
04B6
04B6
04B6
04B5
04B5
04B5
04B5
04B5
04B4
04B4
04B4
04B4
04B4
04B3
04B3
04B3
04B3
04B3
04B2
04B2
04B2
04B2
04B2
04B1
04B1
04B1
04B1
04B1
04B0
04B0
04B0
04B0
04B0
04AF
04AF
04AF
04AF
04AF
04AE
04AE
04AE
04AE
04AE
04AD
04AD
04AD
04AD
04AD
04AC
04AC
04AC
04AC
04AC
04AB
04AB
04AB
04AB
04AB
04AA
04AA
04AA
04AA
04AA
04A9
04A9
04A9
04A9
04A9
04A8
04A8
04A8
04A8
04A8
04A7
04A7
04A7
04A7
04A7
04A6
04A6
04A6
04A6
04A6
04A5
04A5
04A5
04A5
04A5
04A4
04A4
04A4
04A4
04A4
04A4
04A3
04A3
04A3
04A3
04A3
04A2
04A2
04A2
04A2
04A2
04A1
04A1
04A1
04A1
04A1
04A0
04A0
04A0
04A0
04A0
049F
049F
049F
049F
049F
049E
049E
049E
049E
049E
049E
049D
049D
049D
049D
049D
049C
049C
049C
049C
049C
049B
049B
049B
049B
049B
049A
049A
049A
049A
049A
0499
0499
0499
0499
0499
0499
0498
0498
0498
0498
0498
0497
0497
0497
0497
0497
0496
0496
0496
0496
0496
0496
0495
0495
0495
0495
0495
0494
0494
0494
0494
0494
0493
0493
0493
0493
0493
0493
0492
0492
0492
0492
0492
0491
0491
0491
0491
0491
0490
0490
0490
0490
0490
0490
048F
048F
048F
048F
048F
048E
048E
048E
048E
048E
048D
048D
048D
048D
048D
048D
048C
048C
048C
048C
048C
048B
048B
048B
048B
048B
048B
048A
048A
048A
048A
048A
0489
0489
0489
0489
0489
0489
0488
0488
0488
0488
0488
0487
0487
0487
0487
0487
0487
0486
0486
0486
0486
0486
0485
0485
0485
0485
0485
0485
0484
0484
0484
0484
0484
0483
0483
0483
0483
0483
0483
0482
0482
0482
0482
0482
0482
0481
0481
0481
0481
0481
0480
0480
0480
0480
0480
0480
047F
047F
047F
047F
047F
047E
047E
047E
047E
047E
047E
047D
047D
047D
047D
047D
047D
047C
047C
047C
047C
047C
047B
047B
047B
047B
047B
047B
047A
047A
047A
047A
047A
047A
0479
0479
0479
0479
0479
0478
0478
0478
0478
0478
0478
0477
0477
0477
0477
0477
0477
0476
0476
0476
0476
0476
0476
0475
0475
0475
0475
0475
0474
0474
0474
0474
0474
0474
0473
0473
0473
0473
0473
0473
0472
0472
0472
0472
0472
0472
0471
0471
0471
0471
0471
0471
0470
0470
0470
0470
0470
0470
046F
046F
046F
046F
046F
046E
046E
046E
046E
046E
046E
046D
046D
046D
046D
046D
046D
046C
046C
046C
046C
046C
046C
046B
046B
046B
046B
046B
046B
046A
046A
046A
046A
046A
046A
0469
0469
0469
0469
0469
0469
0468
0468
0468
0468
0468
0468
0467
0467
0467
0467
0467
0467
0466
0466
0466
0466
0466
0466
0465
0465
0465
0465
0465
0465
0464
0464
0464
0464
0464
0464
0463
0463
0463
0463
0463
0463
0462
0462
0462
0462
0462
0462
0461
0461
0461
0461
0461
0461
0460
0460
0460
0460
0460
0460
045F
045F
045F
045F
045F
045F
045E
045E
045E
045E
045E
045E
045E
045D
045D
045D
045D
045D
045D
045C
045C
045C
045C
045C
045C
045B
045B
045B
045B
045B
045B
045A
045A
045A
045A
045A
045A
0459
0459
0459
0459
0459
0459
0459
0458
0458
0458
0458
0458
0458
0457
0457
0457
0457
0457
0457
0456
0456
0456
0456
0456
0456
0455
0455
0455
0455
0455
0455
0455
0454
0454
0454
0454
0454
0454
0453
0453
0453
0453
0453
0453
0452
0452
0452
0452
0452
0452
0452
0451
0451
0451
0451
0451
0451
0450
0450
0450
0450
0450
0450
044F
044F
044F
044F
044F
044F
044F
044E
044E
044E
044E
044E
044E
044D
044D
044D
044D
044D
044D
044D
044C
044C
044C
044C
044C
044C
044B
044B
044B
044B
044B
044B
044A
044A
044A
044A
044A
044A
044A
0449
0449
0449
0449
0449
0449
0448
0448
0448
0448
0448
0448
0448
0447
0447
0447
0447
0447
0447
0446
0446
0446
0446
0446
0446
0446
0445
0445
0445
0445
0445
0445
0445
0444
0444
0444
0444
0444
0444
0443
0443
0443
0443
0443
0443
0443
0442
0442
0442
0442
0442
0442
0441
0441
0441
0441
0441
0441
0441
0440
0440
0440
0440
0440
0440
0440
043F
043F
043F
043F
043F
043F
043E
043E
043E
043E
043E
043E
043E
043D
043D
043D
043D
043D
043D
043D
043C
043C
043C
043C
043C
043C
043C
043B
043B
043B
043B
043B
043B
043A
043A
043A
043A
043A
043A
043A
0439
0439
0439
0439
0439
0439
0439
0438
0438
0438
0438
0438
0438
0438
0437
0437
0437
0437
0437
0437
0436
0436
0436
0436
0436
0436
0436
0435
0435
0435
0435
0435
0435
0435
0434
0434
0434
0434
0434
0434
0434
0433
0433
0433
0433
0433
0433
0433
0432
0432
0432
0432
0432
0432
0432
0431
0431
0431
0431
0431
0431
0431
0430
0430
0430
0430
0430
0430
0430
042F
042F
042F
042F
042F
042F
042F
042E
042E
042E
042E
042E
042E
042E
042D
042D
042D
042D
042D
042D
042D
042C
042C
042C
042C
042C
042C
042C
042B
042B
042B
042B
042B
042B
042B
042A
042A
042A
042A
042A
042A
042A
0429
0429
0429
0429
0429
0429
0429
0428
0428
0428
0428
0428
0428
0428
0427
0427
0427
0427
0427
0427
0427
0426
0426
0426
0426
0426
0426
0426
0426
0425
0425
0425
0425
0425
0425
0425
0424
0424
0424
0424
0424
0424
0424
0423
0423
0423
0423
0423
0423
0423
0422
0422
0422
0422
0422
0422
0422
0421
0421
0421
0421
0421
0421
0421
0421
0420
0420
0420
0420
0420
0420
0420
041F
041F
041F
041F
041F
041F
041F
041E
041E
041E
041E
041E
041E
041E
041E
041D
041D
041D
041D
041D
041D
041D
041C
041C
041C
041C
041C
041C
041C
041B
041B
041B
041B
041B
041B
041B
041B
041A
041A
041A
041A
041A
041A
041A
0419
0419
0419
0419
0419
0419
0419
0418
0418
0418
0418
0418
0418
0418
0418
0417
0417
0417
0417
0417
0417
0417
0416
0416
0416
0416
0416
0416
0416
0416
0415
0415
0415
0415
0415
0415
0415
0414
0414
0414
0414
0414
0414
0414
0414
0413
0413
0413
0413
0413
0413
0413
0413
0412
0412
0412
0412
0412
0412
0412
0411
0411
0411
0411
0411
0411
0411
0411
0410
0410
0410
0410
0410
0410
0410
040F
040F
040F
040F
040F
040F
040F
040F
040E
040E
040E
040E
040E
040E
040E
040E
040D
040D
040D
040D
040D
040D
040D
040C
040C
040C
040C
040C
040C
040C
040C
040B
040B
040B
040B
040B
040B
040B
040B
040A
040A
040A
040A
040A
040A
040A
040A
0409
0409
0409
0409
0409
0409
0409
0408
0408
0408
0408
0408
0408
0408
0408
0407
0407
0407
0407
0407
0407
0407
0407
0406
0406
0406
0406
0406
0406
0406
0406
0405
0405
0405
0405
0405
0405
0405
0405
0404
0404
0404
0404
0404
0404
0404
0404
0403
0403
0403
0403
0403
0403
0403
0403
0402
0402
0402
0402
0402
0402
0402
0401
0401
0401
0401
0401
0401
0401
0401
0400
0400
0400
0400
0400
0400
0400
0400
03FF
03FF
03FF
03FF
