7E7DB
7CCA1
7B1C4
79744
77D20
76355
749E3
730C9
71805
6FF97
6E77D
6CFB5
6B840
6A11B
68A47
673C0
65D88
6479B
631FB
61CA5
60798
5F2D4
5DE57
5CA21
5B630
5A285
58F1D
57BF7
56914
55672
54410
531ED
52009
50E62
4FCF8
4EBCA
4DAD7
4CA1F
4B9A0
4A95A
4994C
48975
479D5
46A6B
45B36
44C35
43D68
42ECE
42066
41230
4042A
3F655
3E8B0
3DB39
3CDF1
3C0D7
3B3EA
3A729
39A95
38E2B
381EC
375D8
369ED
35E2B
35292
34721
33BD7
330B3
325B7
31AE0
3102E
305A1
2FB39
2F0F4
2E6D3
2DCD5
2D2F9
2C93F
2BFA7
2B62F
2ACD8
2A3A2
29A8B
29193
288BB
28000
27764
26EE6
26684
25E40
25618
24E0C
2461C
23E47
2368D
22EEE
22769
21FFE
218AC
21174
20A55
2034E
1FC5F
1F588
1EEC9
1E821
1E190
1DB15
1D4B1
1CE63
1C82A
1C207
1BBF9
1B600
1B01C
1AA4C
1A48F
19EE7
19952
193D0
18E62
18905
183BC
17E85
1795F
1744B
16F49
16A58
16578
160A9
15BEB
1573C
1529E
14E10
14992
14522
140C3
13C72
13830
133FD
12FD8
12BC2
127B9
123BF
11FD2
11BF3
11821
1145C
110A4
10CF9
1095B
105C9
10243
0FECA
0FB5C
0F7FB
0F4A5
0F15A
0EE1B
0EAE7
0E7BE
0E4A0
0E18C
0DE84
0DB85
0D891
0D5A7
0D2C7
0CFF1
0CD25
0CA63
0C7AA
0C4FA
0C254
0BFB6
0BD22
0BA97
0B814
0B59A
0B329
0B0C0
0AE5F
0AC06
0A9B6
0A76D
0A52D
0A2F4
0A0C3
09E99
09C77
09A5C
09848
0963C
09436
09238
09040
08E50
08C65
08A82
088A5
086CE
084FE
08334
08170
07FB2
07DFA
07C49
07A9D
078F6
07756
075BB
07425
07295
0710A
06F85
06E05
06C8A
06B14
069A4
06838
066D1
0656F
06411
062B9
06165
06015
05ECA
05D84
05C42
05B04
059CB
05895
05764
05637
0550E
053E9
052C8
051AB
05092
04F7C
04E6B
04D5D
04C52
04B4B
04A48
04948
0484C
04753
0465D
0456B
0447C
04390
042A7
041C2
040DF
04000
