1F9F6E6
1F84253
1F68F36
1F4DD91
1F32D66
1F17EB0
1EFD167
1EE2594
1EC7B32
1EAD241
1E92ABF
1E784AD
1E5E003
1E43CC2
1E29AEF
1E0FA82
1DF5B80
1DDBDE1
1DC21A8
1DA86D2
1D8ED5C
1D7554D
1D5BE99
1D42946
1D29552
1D102BA
1CF717C
1CDE19A
1CC530D
1CAC5DD
1C939FF
1C7AF7B
1C62649
1C49E6A
1C317DD
1C192A3
1C00EB9
1BE8C1B
1BD0ACC
1BB8ACA
1BA0C12
1B88EA6
1B71283
1B597A5
1B41E12
1B2A5C3
1B12EB8
1AFB8F1
1AE446D
1ACD12A
1AB5F28
1A9EE64
1A87EDE
1A71098
1A5A38C
1A437BA
1A2CD24
1A163C7
19FFB9F
19E94B0
19D2EF7
19BCA71
19A671F
1990500
197A414
1964457
194E5CA
1938869
1922C39
190D135
18F775A
18E1EAA
18CC724
18B70C8
18A1B92
188C784
187749A
18622D4
184D231
18382B2
1823454
180E715
17F9AF7
17E4FF8
17D0617
17BBD52
17A75A8
1792F17
177E9A2
176A546
1756202
1741FD5
172DEBF
1719EBB
1705FCB
16F21F0
16DE528
16CA971
16B6ECB
16A3533
168FCA9
167C530
1668EBF
165595C
1642505
162F1B7
161BF73
1608E37
15F5E03
15E2ED4
15D00AA
15BD387
15AA766
1597C49
158522D
1572914
15600FB
154D9E0
153B3C4
1528EA7
1516A86
1504762
14F2538
14E040A
14CE3D4
14BC498
14AA652
1498904
1486CAB
1475149
14636DB
1451D61
14404DA
142ED45
141D6A0
140C0ED
13FAC29
13E9852
13D856B
13C7371
13B6263
13A5242
139430C
13834BD
137275B
1361ADE
1350F4A
134049D
132FAD7
131F1F5
130E9F8
12FE2DE
12EDCA8
12DD754
12CD2E3
12BCF50
12ACC9F
129CACC
128C9D8
127C9C1
126CA88
125CC2A
124CEA9
123D202
122D635
121DB42
120E126
11FE7E4
11EEF77
11DF7E2
11D0121
11C0B35
11B161F
11A21DB
1192E6A
1183BCB
11749FD
1165901
11568D3
1147975
1138AE7
1129D26
111B032
110C40A
10FD8AE
10EEE1C
10E0457
10D1B5A
10C3326
10B4BBB
10A6517
1097F3B
1089A24
107B5D3
106D247
105EF80
1050D7E
1042C3D
1034BBE
1026C02
1018D07
100AECC
0FFD150
0FEF494
0FE1894
0FD3D55
0FC62D3
0FB890D
0FAB003
0F9D7B5
0F9001E
0F82945
0F75324
0F67DBC
0F5A90C
0F4D513
0F401D2
0F32F47
0F25D71
0F18C50
0F0BBE4
0EFEC2C
0EF1D27
0EE4ED3
0ED8133
0ECB444
0EBE807
0EB1C77
0EA519A
0E9876A
0E8BDEB
0E7F518
0E72CF1
0E66579
0E59EAD
0E4D88A
0E41314
0E34E49
0E28A25
0E1C6AD
0E103DE
0E041B5
0DF8033
0DEBF5A
0DDFF27
0DD3F9A
0DC80B1
0DBC26E
0DB04CF
0DA47D4
0D98B7A
0D8CFC5
0D814B1
0D75A3E
0D6A06D
0D5E73B
0D52EAA
0D476B7
0D3BF64
0D308AE
0D25296
0D19D1C
0D0E83D
0D033FC
0CF8055
0CECD49
0CE1AD8
0CD6901
0CCB7C4
0CC071F
0CB5712
0CAA79E
0C9F8C2
0C94A7C
0C89CCB
0C7EFB2
0C7432E
0C6973E
0C5EBE3
0C5411B
0C496E7
0C3ED47
0C34437
0C29BBB
0C1F3CF
0C14C74
0C0A5AA
0BFFF6F
0BF59C5
0BEB4A9
0BE101C
0BD6C1C
0BCC8AA
0BC25C5
0BB836D
0BAE1A1
0BA4060
0B99FAA
0B8FF80
0B85FDE
0B7C0C7
0B7223A
0B68435
0B5E6B8
0B549C4
0B4AD56
0B41171
0B37610
0B2DB37
0B240E2
0B1A714
0B10DCA
0B07504
0AFDCC2
0AF4504
0AEADC8
0AE170F
0AD80D8
0ACEB21
0AC55ED
0ABC13A
0AB2D06
0AA9953
0AA061F
0A9736A
0A8E133
0A84F7C
0A7BE41
0A72D83
0A69D44
0A60D7F
0A57E38
0A4EF6B
0A4611B
0A3D344
0A345E8
0A2B906
0A22C9F
0A1A0AF
0A11539
0A08A3B
09FFFB5
09F75A6
09EEC0F
09E62EE
09DDA44
09D520F
09CCA50
09C4307
09BBC31
09B35D1
09AAFE4
09A2A6B
099A564
09920D1
0989CB1
0981902
09795C4
09712F8
096909D
0960EB3
0958D39
0950C2E
0948B92
0940B65
0938BA7
0930C58
0928D76
0920F01
09190FA
0911360
0909631
090196F
08F9D19
08F212E
08EA5AE
08E2A98
08DAFEC
08D35AB
08CBBD3
08C4263
08BC95D
08B50BF
08AD88A
08A60BB
089E955
0897255
088FBBD
088858A
0880FBD
0879A56
0872555
086B0B8
0863C7F
085C8AC
085553C
084E230
0846F87
083FD41
0838B5D
08319DC
082A8BD
0823800
081C7A3
08157A8
080E80D
08078D3
08009F8
07F9B7D
07F2D61
07EBFA5
07E5247
07DE548
07D78A6
07D0C62
07CA07D
07C34F3
07BC9C7
07B5EF7
07AF483
07A8A6C
07A20AF
079B74E
0794E48
078E59C
0787D4B
0781554
077ADB7
0774672
076DF87
07678F5
07612BC
075ACDA
0754751
074E21E
0747D44
07418C0
073B493
07350BD
072ED3C
0728A12
072273D
071C4BD
0716293
07100BD
0709F3B
0703E0F
06FDD35
06F7CAF
06F1C7C
06EBC9D
06E5D0F
06DFDD5
06D9EED
06D4056
06CE211
06C841E
06C267C
06BC92A
06B6C29
06B0F78
06AB317
06A5706
069FB45
0699FD2
06944AE
068E9D9
0688F53
068351B
067DB2F
0678192
0672843
066CF40
066768A
0661E21
065C604
0656E33
06516AE
064BF74
0646886
06411E2
063BB89
063657B
0630FB7
062BA3E
062650D
0621026
061BB89
0616735
0611329
060BF66
0606BEB
06018B8
05FC5CD
05F732A
05F20CE
05ECEB9
05E7CEA
05E2B63
05DDA21
05D8926
05D3871
05CE801
05C97D7
05C47F2
05BF851
05BA8F6
05B59DF
05B0B0C
05ABC7D
05A6E32
05A202B
059D267
05984E6
05937A8
058EAAC
0589DF3
058517D
0580547
057B955
0576DA3
0572232
056D704
0568C15
0564167
055F6FB
055ACCE
05562E1
0551933
054CFC6
0548697
0543DA8
053F4F8
053AC87
0536454
0531C5F
052D4A9
0528D30
05245F5
051FEF7
051B837
05171B4
0512B6D
050E564
0509F96
0505A05
05014B0
04FCF97
04F8AB9
04F4617
04F01B0
04EBD84
04E7993
04E35DC
04DF260
04DAF1E
04D6C16
04D2949
04CE6B4
04CA459
04C6238
04C204F
04BDEA0
04B9D28
04B5BEA
04B1AE3
04ADA16
04A997F
04A5921
04A18FA
049D90A
0499952
04959D0
0491A86
048DB72
0489C94
0485DED
0481F7B
047E140
047A33A
047656A
04727CF
046EA69
046AD39
046703D
0463375
045F6E2
045BA84
0457E59
0454263
04506A0
044CB10
0448FB5
044548C
0441996
043DED4
043A443
04369E6
0432FBB
042F5C2
042BBFB
0428266
0424902
0420FD0
041D6D0
0419E00
0416562
0412CF4
040F4B8
040BCAC
04084D0
0404D24
04015A8
03FDE5C
03FA740
03F7054
03F3997
03F0309
03ECCAA
03E967A
03E6079
03E2AA6
03DF502
03DBF8C
03D8A44
03D552B
03D203F
03CEB81
03CB6F0
03C828C
03C4E56
03C1A4D
03BE671
03BB2C1
03B7F3E
03B4BE8
03B18BE
03AE5C0
03AB2EE
03A8048
03A4DCD
03A1B7E
039E95B
039B762
0398595
03953F3
039227C
038F12F
038C00D
0388F15
0385E48
0382DA5
037FD2B
037CCDC
0379CB6
0376CBA
0373CE7
0370D3D
036DDBC
036AE65
0367F36
0365030
0362153
035F29E
035C411
03595AD
0356770
035395C
0350B6F
034DDAA
034B00C
0348296
0345547
034281F
033FB1E
033CE43
033A190
0337503
033489D
0331C5D
032F043
032C44F
0329880
0326CD8
0324156
03215F9
031EAC1
031BFAF
03194C2
03169FA
0313F57
03114D8
030EA7F
030C049
0309639
0306C4C
0304284
03018DF
02FEF5F
02FC603
02F9CCA
02F73B5
02F4AC3
02F21F4
02EF949
02ED0C1
02EA85C
02E801A
02E57FA
02E2FFD
02E0823
02DE06A
02DB8D5
02D9161
02D6A0F
02D42E0
02D1BD2
02CF4E6
02CCE1B
02CA772
02C80EA
02C5A84
02C343E
02C0E1A
02BE817
02BC234
02B9C72
02B76D1
02B514F
02B2BEF
02B06AF
02AE18F
02ABC8F
02A97AE
02A72EE
02A4E4D
02A29CC
02A056B
029E129
029BD06
0299902
029751D
0295158
0292DB1
0290A29
028E6C0
028C375
028A048
0287D3A
0285A4B
0283779
02814C5
027F230
027CFB8
027AD5E
0278B22
0276903
0274701
027251D
0270356
026E1AD
026C020
0269EB0
0267D5E
0265C28
0263B0E
0261A11
025F931
025D86D
025B7C5
0259739
02576CA
0255676
025363F
0251623
024F623
024D63E
024B675
02496C8
0247735
02457BE
0243863
0241922
023F9FC
023DAF1
023BC01
0239D2B
0237E71
0235FD0
023414A
02322DF
023048D
022E656
022C839
022AA36
0228C4D
0226E7D
02250C8
022332C
02215A9
021F840
021DAF1
021BDBA
021A09D
0218399
02166AE
02149DC
0212D23
0211082
020F3FB
020D78C
020BB35
0209EF7
02082D1
02066C4
0204ACE
0202EF1
020132C
01FF77F
01FDBEA
01FC06D
01FA507
01F89B9
01F6E82
01F5363
01F385C
01F1D6B
01F0292
01EE7D0
01ECD25
01EB292
01E9815
01E7DAF
01E6360
01E4927
01E2F05
01E14FA
01DFB05
01DE127
01DC75E
01DADAC
01D9411
01D7A8B
01D611B
01D47C2
01D2E7E
01D1550
01CFC38
01CE335
01CCA48
01CB171
01C98AE
01C8002
01C676A
01C4EE8
01C367B
01C1E23
01C05E0
01BEDB2
01BD599
01BBD94
01BA5A5
01B8DCA
01B7603
01B5E51
01B46B4
01B2F2B
01B17B6
01B0055
01AE909
01AD1D1
01ABAAC
01AA39C
01A8CA0
01A75B7
01A5EE2
01A4821
01A3174
01A1ADA
01A0454
019EDE1
019D781
019C135
019AAFC
01994D6
0197EC4
01968C4
01952D7
0193CFE
0192737
0191183
018FBE1
018E653
018D0D7
018BB6D
018A616
01890D1
0187B9F
018667F
0185171
0183C75
018278C
01812B4
017FDEF
017E93B
017D499
017C009
017AB8B
017971F
01782C4
0176E7B
0175A43
017461C
0173207
0171E04
0170A11
016F630
016E260
016CEA1
016BAF3
016A757
01693CA
016804F
0166CE5
016598C
0164643
016330A
0161FE3
0160CCC
015F9C5
015E6CF
015D3E9
015C113
015AE4E
0159B99
01588F4
015765F
01563DA
0155165
0153F01
0152CAB
0151A66
0150831
014F60B
014E3F5
014D1EE
014BFF7
014AE10
0149C38
0148A6F
01478B6
014670C
0145571
01443E6
0143269
01420FC
0140F9E
013FE4E
013ED0E
013DBDD
013CABA
013B9A6
013A8A1
01397AB
01386C3
01375E9
013651F
0135463
01343B5
0133315
0132284
0131202
013018D
012F127
012E0CF
012D085
012C049
012B01B
0129FFB
0128FE9
0127FE5
0126FEE
0126006
012502B
012405D
012309E
01220EC
0121147
01201B0
011F227
011E2AB
011D33C
011C3DB
011B487
011A540
0119606
01186D9
01177BA
01168A7
01159A2
0114AA9
0113BBE
0112CDF
0111E0D
0110F48
0110090
010F1E4
010E345
010D4B3
010C62D
010B7B4
010A947
0109AE7
0108C93
0107E4B
0107010
01061E1
01053BE
01045A8
010379D
010299F
0101BAD
0100DC7
00FFFED
