0000000
2D413CD
2000000
1A20BD6
16A09E6
143D135
1279A74
111ACED
1000000
0F15BEF
0E4F92D
0DA5149
0D105EB
0C8D2AB
0C1848F
0BAF4B9
0B504F3
0AF9D53
0AAAAAA
0A61D5F
0A1E89A
09E01B2
09A5FB1
096FB06
093CD3A
090D0C2
08E00D5
08B5947
088D676
0867531
08432A4
0820C52
0800000
07E0BB1
07C2DA1
07A6433
078ADF7
077099E
07575FA
073F1F6
0727C96
07114F5
06FBA41
06E6BB6
06D28A4
06BF067
06AC266
0699E16
06882F5
067708A
0666666
065641F
0646955
06375AC
06288D1
061A273
060C247
05FE808
05F1375
05E444F
05D7A5C
05CB567
05BF539
05B39A4
05A8279
059CF8C
05920B4
05875CA
057CEA9
0572B2D
0568B35
055EEA2
0555555
054BF31
0542C1A
0539BF7
0530EAF
052842A
051FC51
051770E
050F44D
05073FA
04FF601
04F7A51
04F00D9
04E8987
04E144B
04DA115
04D2FD8
04CC085
04C530F
04BE767
04B7D83
04B1554
04AAED0
04A49EC
049E69D
04984D7
0492492
048C5C3
0486861
0480C63
047B1C0
0475870
047006A
046A9A7
046541F
045FFCB
045ACA3
0455AA1
04509BE
044B9F3
0446B3B
0441D8F
043D0E9
0438543
0433A98
042F0E3
042A81F
0426045
0421952
041D341
0418E0C
04149B0
0410629
040C371
0408185
0404060
0400000
03FC05F
03F817B
03F434F
03F05D8
03EC914
03E8CFE
03E5193
03E16D0
03DDCB2
03DA337
03D6A5A
03D3219
03CFA72
03CC362
03C8CE6
03C56FB
03C21A0
03BECD1
03BB88C
03B84CF
03B5198
03B1EE3
03AECB1
03ABAFD
03A89C6
03A590A
03A28C7
039F8FB
039C9A4
0399AC0
0396C4E
0393E4B
03910B6
038E38E
038B6D0
0388A7A
0385E8D
0383305
03807E1
037DD20
037B2C0
03788C1
0375F1F
03735DB
0370CF2
036E464
036BC2F
0369452
0366CCB
036459A
0361EBD
035F833
035D1FB
035AC14
035867C
0356133
0353C37
0351788
034F324
034CF0B
034AB3B
03487B3
0346474
034417A
0341EC7
033FC58
033DA2D
033B845
033969F
033753B
0335417
0333333
033128D
032F226
032D1FD
032B20F
032925E
03272E8
03253AC
03234AA
03215E1
031F751
031D8F8
031BAD6
0319CEB
0317F35
03161B4
0314468
0312750
0310A6B
030EDB9
030D139
030B4EB
03098CD
0307CE0
0306123
0304596
0302A37
0300F07
02FF404
02FD92F
02FBE86
02FA40B
02F89BA
02F6F96
02F559C
02F3BCD
02F2227
02F08AC
02EEF59
02ED630
02EBD2E
02EA455
02E8BA2
02E7317
02E5AB3
02E4275
02E2A5D
02E126A
02DFA9C
02DE2F4
02DCB6F
02DB40F
02D9CD2
02D85B8
02D6EC2
02D57EE
02D413C
02D2AAD
02D143F
02CFDF2
02CE7C6
02CD1BB
02CBBD0
02CA605
02C905A
02C7ACE
02C6562
02C5014
02C3AE5
02C25D4
02C10E1
02BFC0C
02BE754
02BD2BA
02BBE3C
02BA9DB
02B9596
02B816E
02B6D61
02B5970
02B459A
02B31E0
02B1E40
02B0ABB
02AF751
02AE401
02AD0CA
02ABDAD
02AAAAA
02A97C0
02A84EF
02A7237
02A5F98
02A4D11
02A3AA2
02A284C
02A160D
02A03E5
029F1D6
029DFDD
029CDFB
029BC31
029AA7C
02998DF
0298757
02975E6
029648B
0295345
0294215
02930FA
0291FF4
0290F04
028FE28
028ED61
028DCAF
028CC11
028BB87
028AB11
0289AAF
0288A61
0287A26
02869FF
02859EB
02849EA
02839FD
0282A22
0281A59
0280AA4
027FB00
027EB6F
027DBF0
027CC84
027BD28
027ADDF
0279EA7
0278F81
027806C
0277168
0276276
0275394
02744C3
0273603
0272753
02718B4
0270A25
026FBA6
026ED38
026DED9
026D08A
026C24C
026B41C
026A5FC
02697EC
02689EB
0267BF9
0266E16
0266042
026527E
02644C7
0263720
0262987
0261BFD
0260E81
0260113
025F3B3
025E662
025D91F
025CBE9
025BEC1
025B1A7
025A49A
025979B
0258AAA
0257DC6
02570EF
0256425
0255768
0254AB8
0253E15
025317F
02524F6
0251879
0250C09
024FFA5
024F34E
024E703
024DAC4
024CE92
024C26B
024B651
024AA42
0249E40
0249249
024865D
0247A7E
0246EAA
02462E1
0245724
0244B72
0243FCC
0243430
02428A0
0241D1B
02411A0
0240631
023FACD
023EF73
023E424
023D8E0
023CDA6
023C277
023B752
023AC38
023A128
0239622
0238B26
0238035
023754D
0236A70
0235F9D
02354D3
0234A14
0233F5E
02334B2
0232A0F
0231F76
02314E7
0230A62
022FFE5
022F572
022EB09
022E0A8
022D651
022CC04
022C1BF
022B783
022AD50
022A327
0229906
0228EEE
02284DF
0227AD9
02270DB
02266E6
0225CF9
0225316
022493A
0223F68
022359D
0222BDB
0222222
0221870
0220EC7
0220526
021FB8D
021F1FD
021E874
021DEF3
021D57B
021CC0A
021C2A1
021B940
021AFE7
021A696
0219D4C
021940A
0218ACF
021819D
0217871
0216F4E
0216631
0215D1C
021540F
0214B09
021420A
0213913
0213022
0212739
0211E57
021157D
0210CA9
02103DC
020FB16
020F258
020E9A0
020E0EF
020D845
020CFA2
020C706
020BE70
020B5E1
020AD59
020A4D8
0209C5D
02093E9
0208B7B
0208314
0207AB3
0207259
0206A05
02061B8
0205971
0205130
02048F6
02040C2
0203894
020306D
020284B
0202030
020181B
020100C
0200803
0200000
01FF802
01FF00B
01FE81A
01FE02F
01FD84A
01FD06A
01FC891
01FC0BD
01FB8EF
01FB127
01FA964
01FA1A7
01F99F0
01F923E
01F8A92
01F82EC
01F7B4B
01F73B0
01F6C1A
01F648A
01F5CFF
01F5579
01F4DF9
01F467F
01F3F09
01F3799
01F302F
01F28C9
01F2169
01F1A0E
01F12B8
01F0B68
01F041C
01EFCD6
01EF595
01EEE59
01EE722
01EDFF0
01ED8C3
01ED19B
01ECA78
01EC35A
01EBC41
01EB52D
01EAE1D
01EA713
01EA00D
01E990C
01E9210
01E8B19
01E8427
01E7D39
01E7650
01E6F6C
01E688C
01E61B1
01E5ADA
01E5409
01E4D3B
01E4673
01E3FAE
01E38EF
01E3234
01E2B7D
01E24CB
01E1E1E
01E1774
01E10D0
01E0A2F
01E0393
01DFCFB
01DF668
01DEFD9
01DE94E
01DE2C8
01DDC46
01DD5C8
01DCF4E
01DC8D9
01DC267
01DBBFA
01DB591
01DAF2C
01DA8CC
01DA26F
01D9C16
01D95C2
01D8F71
01D8925
01D82DD
01D7C98
01D7658
01D701C
01D69E3
01D63AF
01D5D7E
01D5751
01D5129
01D4B04
01D44E3
01D3EC6
01D38AC
01D3296
01D2C85
01D2677
01D206C
01D1A66
01D1463
01D0E64
01D0869
01D0271
01CFC7D
01CF68D
01CF0A0
01CEAB7
01CE4D2
01CDEF0
01CD912
01CD337
01CCD60
01CC78C
01CC1BC
01CBBF0
01CB627
01CB061
01CAA9F
01CA4E0
01C9F25
01C996E
01C93B9
01C8E08
01C885B
01C82B1
01C7D0A
01C7767
01C71C7
01C6C2A
01C6691
01C60FA
01C5B68
01C55D8
01C504C
01C4AC3
01C453D
01C3FBB
01C3A3B
01C34BF
01C2F46
01C29D0
01C245E
01C1EEE
01C1982
01C1419
01C0EB3
01C0950
01C03F0
01BFE94
01BF93A
01BF3E3
01BEE90
01BE93F
01BE3F2
01BDEA7
01BD960
01BD41C
01BCEDA
01BC99C
01BC460
01BBF27
01BB9F2
01BB4BF
01BAF8F
01BAA62
01BA538
01BA011
01B9AED
01B95CC
01B90AD
01B8B92
01B8679
01B8163
01B7C50
01B773F
01B7232
01B6D27
01B681F
01B631A
01B5E17
01B5918
01B541A
01B4F20
01B4A29
01B4534
01B4042
01B3B52
01B3665
01B317B
01B2C94
01B27AF
01B22CD
01B1DED
01B1910
01B1436
01B0F5E
01B0A89
01B05B7
01B00E7
01AFC19
01AF74F
01AF286
01AEDC1
01AE8FD
01AE43D
01ADF7E
01ADAC3
01AD60A
01AD153
01ACC9F
01AC7ED
01AC33E
01ABE91
01AB9E7
01AB53F
01AB099
01AABF6
01AA755
01AA2B7
01A9E1B
01A9982
01A94EB
01A9056
01A8BC4
01A8734
01A82A6
01A7E1B
01A7992
01A750B
01A7087
01A6C05
01A6785
01A6308
01A5E8D
01A5A14
01A559D
01A5129
01A4CB7
01A4847
01A43D9
01A3F6E
01A3B05
01A369E
01A323A
01A2DD7
01A2977
01A2519
01A20BD
01A1C63
01A180C
01A13B6
01A0F63
01A0B12
01A06C3
01A0276
019FE2C
019F9E3
019F59D
019F158
019ED16
019E8D6
019E498
019E05C
019DC22
019D7EA
019D3B5
019CF81
019CB4F
019C720
019C2F2
019BEC7
019BA9D
019B676
019B250
019AE2D
019AA0B
019A5EC
019A1CE
0199DB3
0199999
0199581
019916C
0198D58
0198946
0198537
0198129
0197D1D
0197913
019750B
0197105
0196D00
01968FE
01964FE
01960FF
0195D02
0195907
019550E
0195117
0194D22
019492F
019453D
019414E
0193D60
0193974
0193589
01931A1
0192DBB
01929D6
01925F3
0192212
0191E32
0191A55
0191679
019129F
0190EC7
0190AF0
019071C
0190349
018FF78
018FBA8
018F7DA
018F40F
018F044
018EC7C
018E8B5
018E4F0
018E12C
018DD6B
018D9AB
018D5ED
018D230
018CE75
018CABC
018C704
018C34E
018BF9A
018BBE8
018B837
018B487
018B0DA
018AD2E
018A984
018A5DB
018A234
0189E8E
0189AEB
0189748
01893A8
0189009
0188C6B
01888D0
0188535
018819D
0187E06
0187A70
01876DC
018734A
0186FB9
0186C2A
018689C
0186510
0186186
0185DFD
0185A75
01856EF
018536B
0184FE8
0184C66
01848E7
0184568
01841EB
0183E70
0183AF6
018377E
0183407
0183091
0182D1E
01829AB
018263A
01822CB
0181F5D
0181BF0
0181885
018151B
01811B3
0180E4C
0180AE7
0180783
0180421
01800C0
017FD60
017FA02
017F6A5
017F34A
017EFF0
017EC97
017E940
017E5EA
017E296
017DF43
017DBF1
017D8A1
017D552
017D205
017CEB9
017CB6E
017C825
017C4DD
017C196
017BE51
017BB0D
017B7CB
017B489
017B149
017AE0B
017AACE
017A792
017A457
017A11E
0179DE6
0179AAF
017977A
0179446
0179113
0178DE2
0178AB2
0178783
0178456
0178129
0177DFE
0177AD5
01777AC
0177485
017715F
0176E3B
0176B18
01767F5
01764D5
01761B5
0175E97
0175B7A
017585E
0175543
017522A
0174F12
0174BFB
01748E5
01745D1
01742BE
0173FAC
0173C9B
017398B
017367D
0173370
0173064
0172D59
0172A50
0172747
0172440
017213A
0171E35
0171B32
017182F
017152E
017122E
0170F2F
0170C31
0170935
0170639
017033F
0170046
016FD4E
016FA57
016F761
016F46D
016F17A
016EE87
016EB96
016E8A6
016E5B7
016E2CA
016DFDD
016DCF1
016DA07
016D71E
016D436
016D14F
016CE69
016CB84
016C8A0
016C5BD
016C2DC
016BFFC
016BD1C
016BA3E
016B761
016B485
016B1AA
016AED0
016ABF7
016A91F
016A648
016A373
016A09E
0169DCA
0169AF8
0169826
0169556
0169287
0168FB8
0168CEB
0168A1F
0168754
016848A
01681C1
0167EF9
0167C32
016796C
01676A7
01673E3
0167120
0166E5E
0166B9D
01668DD
016661E
0166360
01660A3
0165DE8
0165B2D
0165873
01655BA
0165302
016504B
0164D96
0164AE1
016482D
016457A
01642C8
0164017
0163D67
0163AB8
016380A
016355D
01632B1
0163005
0162D5B
0162AB2
016280A
0162562
01622BC
0162017
0161D72
0161ACF
016182C
016158B
01612EA
016104A
0160DAB
0160B0D
0160870
01605D4
0160339
016009F
015FE06
015FB6D
015F8D6
015F640
015F3AA
015F115
015EE81
015EBEF
015E95D
015E6CC
015E43B
015E1AC
015DF1E
015DC90
015DA04
015D778
015D4ED
015D263
015CFDA
015CD52
015CACB
015C845
015C5BF
015C33A
015C0B7
015BE34
015BBB2
015B931
015B6B0
015B431
015B1B2
015AF35
015ACB8
015AA3C
015A7C1
015A546
015A2CD
015A054
0159DDD
0159B66
01598F0
015967B
0159406
0159193
0158F20
0158CAE
0158A3D
01587CD
015855D
01582EF
0158081
0157E14
0157BA8
015793D
01576D2
0157469
0157200
0156F98
0156D31
0156ACA
0156865
0156600
015639C
0156139
0155ED6
0155C75
0155A14
01557B4
0155555
01552F6
0155099
0154E3C
0154BE0
0154985
015472A
01544D0
0154277
015401F
0153DC8
0153B71
015391B
01536C6
0153472
015321F
0152FCC
0152D7A
0152B29
01528D8
0152688
0152439
01521EB
0151F9E
0151D51
0151B05
01518BA
015166F
0151426
01511DD
0150F94
0150D4D
0150B06
01508C0
015067B
0150436
01501F2
014FFAF
014FD6D
014FB2C
014F8EB
014F6AA
014F46B
014F22C
014EFEE
014EDB1
014EB74
014E939
014E6FD
014E4C3
014E289
014E050
014DE18
014DBE0
014D9AA
014D773
014D53E
014D309
014D0D5
014CEA2
014CC6F
014CA3D
014C80C
014C5DB
014C3AB
014C17C
014BF4E
014BD20
014BAF3
014B8C6
014B69B
014B46F
014B245
014B01B
014ADF2
014ABCA
014A9A2
014A77B
014A555
014A32F
014A10A
0149EE6
0149CC2
0149A9F
014987D
014965B
014943A
014921A
0148FFA
0148DDB
0148BBC
014899F
0148782
0148565
0148349
014812E
0147F14
0147CFA
0147AE1
01478C8
01476B0
0147499
0147282
014706C
0146E57
0146C42
0146A2E
014681B
0146608
01463F6
01461E4
0145FD3
0145DC3
0145BB3
01459A4
0145796
0145588
014537B
014516F
0144F63
0144D57
0144B4D
0144942
0144739
0144530
0144328
0144120
0143F19
0143D13
0143B0D
0143908
0143703
01434FF
01432FC
01430F9
0142EF7
0142CF5
0142AF4
01428F4
01426F4
01424F5
01422F6
01420F8
0141EFB
0141CFE
0141B02
0141906
014170B
0141511
0141317
014111D
0140F25
0140D2C
0140B35
014093E
0140747
0140552
014035C
0140168
013FF74
013FD80
013FB8D
013F99B
013F7A9
013F5B7
013F3C7
013F1D7
013EFE7
013EDF8
013EC09
013EA1C
013E82E
013E642
013E455
013E26A
013E07F
013DE94
013DCAA
013DAC1
013D8D8
013D6EF
013D508
013D320
013D13A
013CF53
013CD6E
013CB89
013C9A4
013C7C0
013C5DD
013C3FA
013C218
013C036
013BE55
013BC74
013BA94
013B8B4
013B6D5
013B4F6
013B318
013B13B
013AF5E
013AD81
013ABA5
013A9CA
013A7EF
013A614
013A43B
013A261
013A088
0139EB0
0139CD8
0139B01
013992A
0139754
013957E
01393A9
01391D5
0139000
0138E2D
0138C5A
0138A87
01388B5
01386E3
0138512
0138342
0138172
0137FA2
0137DD3
0137C04
0137A36
0137869
013769C
01374CF
0137303
0137137
0136F6C
0136DA2
0136BD8
0136A0E
0136845
013667C
01364B4
01362ED
0136126
0135F5F
0135D99
0135BD3
0135A0E
0135849
0135685
01354C1
01352FE
013513B
0134F79
0134DB7
0134BF6
0134A35
0134875
01346B5
01344F5
0134336
0134178
0133FBA
0133DFC
0133C3F
0133A83
01338C7
013370B
0133550
0133395
01331DB
0133021
0132E68
0132CAF
0132AF7
013293F
0132787
01325D0
013241A
0132263
01320AE
0131EF9
0131D44
0131B90
01319DC
0131829
0131676
01314C3
0131311
0131160
0130FAF
0130DFE
0130C4E
0130A9E
01308EF
0130740
0130592
01303E4
0130236
0130089
012FEDD
012FD30
012FB85
012F9D9
012F82F
012F684
012F4DA
012F331
012F188
012EFDF
012EE37
012EC8F
012EAE8
012E941
012E79A
012E5F4
012E44F
012E2A9
012E105
012DF60
012DDBC
012DC19
012DA76
012D8D3
012D731
012D58F
012D3EE
012D24D
012D0AC
012CF0C
012CD6D
012CBCD
012CA2F
012C890
012C6F2
012C555
012C3B7
012C21B
012C07E
012BEE3
012BD47
012BBAC
012BA11
012B877
012B6DD
012B544
012B3AB
012B212
012B07A
012AEE2
012AD4B
012ABB4
012AA1D
012A887
012A6F1
012A55C
012A3C7
012A232
012A09E
0129F0A
0129D77
0129BE4
0129A51
01298BF
012972E
012959C
012940B
012927B
01290EB
0128F5B
0128DCB
0128C3C
0128AAE
0128920
0128792
0128604
0128477
01282EB
012815E
0127FD2
0127E47
0127CBC
0127B31
01279A7
012781D
0127693
012750A
0127381
01271F9
0127071
0126EE9
0126D62
0126BDB
0126A55
01268CE
0126749
01265C3
012643E
01262BA
0126135
0125FB2
0125E2E
0125CAB
0125B28
01259A6
0125824
01256A2
0125521
01253A0
012521F
012509F
0124F20
0124DA0
0124C21
0124AA2
0124924
01247A6
0124629
01244AB
012432E
01241B2
0124036
0123EBA
0123D3F
0123BC4
0123A49
01238CF
0123755
01235DB
0123462
01232E9
0123170
0122FF8
0122E80
0122D09
0122B92
0122A1B
01228A5
012272F
01225B9
0122443
01222CE
012215A
0121FE6
0121E72
0121CFE
0121B8B
0121A18
01218A5
0121733
01215C1
0121450
01212DF
012116E
0120FFD
0120E8D
0120D1D
0120BAE
0120A3F
01208D0
0120762
01205F3
0120486
0120318
01201AB
012003F
011FED2
011FD66
011FBFA
011FA8F
011F924
011F7B9
011F64F
011F4E5
011F37B
011F212
011F0A9
011EF40
011EDD8
011EC70
011EB08
011E9A0
011E839
011E6D3
011E56C
011E406
011E2A0
011E13B
011DFD6
011DE71
011DD0D
011DBA9
011DA45
011D8E1
011D77E
011D61C
011D4B9
011D357
011D1F5
011D094
011CF32
011CDD1
011CC71
011CB11
011C9B1
011C851
011C6F2
011C593
011C434
011C2D6
011C178
011C01A
011BEBD
011BD60
011BC03
011BAA6
011B94A
011B7EF
011B693
011B538
011B3DD
011B282
011B128
011AFCE
011AE74
011AD1B
011ABC2
011AA69
011A911
011A7B9
011A661
011A50A
011A3B2
011A25C
011A105
0119FAF
0119E59
0119D03
0119BAE
0119A59
0119904
01197AF
011965B
0119507
01193B4
0119261
011910E
0118FBB
0118E69
0118D17
0118BC5
0118A73
0118922
01187D1
0118681
0118531
01183E1
0118291
0118141
0117FF2
0117EA4
0117D55
0117C07
0117AB9
011796B
011781E
01176D1
0117584
0117438
01172EB
01171A0
0117054
0116F09
0116DBE
0116C73
0116B28
01169DE
0116894
011674B
0116602
01164B8
0116370
0116227
01160DF
0115F97
0115E50
0115D08
0115BC1
0115A7B
0115934
01157EE
01156A8
0115562
011541D
01152D8
0115193
011504F
0114F0A
0114DC6
0114C83
0114B3F
01149FC
01148B9
0114777
0114634
01144F2
01143B1
011426F
011412E
0113FED
0113EAC
0113D6C
0113C2C
0113AEC
01139AC
011386D
011372E
01135EF
01134B1
0113373
0113235
01130F7
0112FBA
0112E7C
0112D40
0112C03
0112AC7
011298B
011284F
0112713
01125D8
011249D
0112362
0112228
01120EE
0111FB4
0111E7A
0111D40
0111C07
0111ACE
0111996
011185D
0111725
01115ED
01114B6
011137E
0111247
0111111
0110FDA
0110EA4
0110D6E
0110C38
0110B02
01109CD
0110898
0110763
011062F
01104FB
01103C7
0110293
011015F
011002C
010FEF9
010FDC6
010FC94
010FB62
010FA30
010F8FE
010F7CD
010F69B
010F56A
010F43A
010F309
010F1D9
010F0A9
010EF79
010EE4A
010ED1B
010EBEC
010EABD
010E98F
010E860
010E733
010E605
010E4D7
010E3AA
010E27D
010E150
010E024
010DEF8
010DDCC
010DCA0
010DB74
010DA49
010D91E
010D7F3
010D6C9
010D59E
010D474
010D34B
010D221
010D0F8
010CFCF
010CEA6
010CD7D
010CC55
010CB2D
010CA05
010C8DD
010C7B6
010C68E
010C567
010C441
010C31A
010C1F4
010C0CE
010BFA8
010BE83
010BD5D
010BC38
010BB14
010B9EF
010B8CB
010B7A7
010B683
010B55F
010B43C
010B318
010B1F5
010B0D3
010AFB0
010AE8E
010AD6C
010AC4A
010AB29
010AA07
010A8E6
010A7C5
010A6A5
010A584
010A464
010A344
010A224
010A105
0109FE5
0109EC6
0109DA8
0109C89
0109B6B
0109A4D
010992F
0109811
01096F3
01095D6
01094B9
010939C
0109280
0109163
0109047
0108F2B
0108E10
0108CF4
0108BD9
0108ABE
01089A3
0108889
010876E
0108654
010853A
0108421
0108307
01081EE
01080D5
0107FBC
0107EA3
0107D8B
0107C73
0107B5B
0107A43
010792C
0107814
01076FD
01075E6
01074D0
01073B9
01072A3
010718D
0107077
0106F62
0106E4C
0106D37
0106C22
0106B0E
01069F9
01068E5
01067D1
01066BD
01065A9
0106496
0106383
0106270
010615D
010604A
0105F38
0105E26
0105D14
0105C02
0105AF0
01059DF
01058CE
01057BD
01056AC
010559C
010548C
010537C
010526C
010515C
010504D
0104F3D
0104E2E
0104D1F
0104C11
0104B02
01049F4
01048E6
01047D8
01046CB
01045BD
01044B0
01043A3
0104296
010418A
010407D
0103F71
0103E65
0103D59
0103C4E
0103B42
0103A37
010392C
0103822
0103717
010360D
0103502
01033F9
01032EF
01031E5
01030DC
0102FD3
0102ECA
0102DC1
0102CB8
0102BB0
0102AA8
01029A0
0102898
0102790
0102689
0102582
010247B
0102374
010226D
0102167
0102061
0101F5B
0101E55
0101D4F
0101C4A
0101B45
0101A40
010193B
0101836
0101732
010162D
0101529
0101425
0101322
010121E
010111B
0101018
0100F15
0100E12
0100D0F
0100C0D
0100B0B
0100A09
0100907
0100806
0100704
0100603
0100502
0100401
0100300
0100200
0100100
