3C3
76A
570
47F
3EB
385
338
2FD
2CC
2A4
282
264
24B
234
220
20D
1FD
1EE
1E0
1D3
1C8
1BD
1B3
1A9
1A0
198
190
188
181
17B
174
16E
169
163
15E
159
154
14F
14B
147
143
13F
13B
137
134
130
12D
12A
127
124
121
11E
11B
118
116
113
111
10E
10C
10A
108
105
103
101
0FF
0FD
0FB
0F9
0F8
0F6
0F4
0F2
0F1
0EF
0ED
0EC
0EA
0E9
0E7
0E6
0E4
0E3
0E1
0E0
0DF
0DD
0DC
0DB
0DA
0D8
0D7
0D6
0D5
0D4
0D3
0D1
0D0
0CF
0CE
0CD
0CC
0CB
0CA
0C9
0C8
0C7
0C6
0C5
0C4
0C4
0C3
0C2
0C1
0C0
0BF
0BE
0BE
0BD
0BC
0BB
0BA
0BA
0B9
0B8
0B7
0B7
0B6
0B5
0B4
0B4
0B3
0B2
0B2
0B1
0B0
0B0
0AF
0AE
0AE
0AD
0AC
0AC
0AB
0AB
0AA
0A9
0A9
0A8
0A8
0A7
0A7
0A6
0A6
0A5
0A4
0A4
0A3
0A3
0A2
0A2
0A1
0A1
0A0
0A0
09F
09F
09E
09E
09D
09D
09C
09C
09C
09B
09B
09A
09A
099
099
099
098
098
097
097
096
096
096
095
095
094
094
094
093
093
092
092
092
091
091
091
090
090
090
08F
08F
08E
08E
08E
08D
08D
08D
08C
08C
08C
08B
08B
08B
08A
08A
08A
08A
089
089
089
088
088
088
087
087
087
086
086
086
086
085
085
085
084
084
084
084
083
083
083
083
082
082
082
082
081
081
081
080
080
080
080
07F
07F
07F
07F
07E
07E
07E
07E
07E
07D
07D
07D
07D
07C
07C
07C
07C
07B
07B
07B
07B
07B
07A
07A
07A
07A
079
079
079
079
079
078
078
078
078
078
077
077
077
077
077
076
076
076
076
076
075
075
075
075
075
074
074
074
074
074
073
073
073
073
073
072
072
072
072
072
072
071
071
071
071
071
071
070
070
070
070
070
070
06F
06F
06F
06F
06F
06F
06E
06E
06E
06E
06E
06E
06D
06D
06D
06D
06D
06D
06C
06C
06C
06C
06C
06C
06C
06B
06B
06B
06B
06B
06B
06B
06A
06A
06A
06A
06A
06A
06A
069
069
069
069
069
069
069
068
068
068
068
068
068
068
067
067
067
067
067
067
067
067
066
066
066
066
066
066
066
065
065
065
065
065
065
065
065
065
064
064
064
064
064
064
064
064
063
063
063
063
063
063
063
063
062
062
062
062
062
062
062
062
062
061
061
061
061
061
061
061
061
061
060
060
060
060
060
060
060
060
060
05F
05F
05F
05F
05F
05F
05F
05F
05F
05F
05E
05E
05E
05E
05E
05E
05E
05E
05E
05E
05D
05D
05D
05D
05D
05D
05D
05D
05D
05D
05C
05C
05C
05C
05C
05C
05C
05C
05C
05C
05C
05B
05B
05B
05B
05B
05B
05B
05B
05B
05B
05B
05A
05A
05A
05A
05A
05A
05A
05A
05A
05A
05A
059
059
059
059
059
059
059
059
059
059
059
059
058
058
058
058
058
058
058
058
058
058
058
058
057
057
057
057
057
057
057
057
057
057
057
057
056
056
056
056
056
056
056
056
056
056
056
056
056
055
055
055
055
055
055
055
055
055
055
055
055
055
055
054
054
054
054
054
054
054
054
054
054
054
054
054
054
053
053
053
053
053
053
053
053
053
053
053
053
053
053
052
052
052
052
052
052
052
052
052
052
052
052
052
052
052
051
051
051
051
051
051
051
051
051
051
051
051
051
051
051
051
050
050
050
050
050
050
050
050
050
050
050
050
050
050
050
050
04F
04F
04F
04F
04F
04F
04F
04F
04F
04F
04F
04F
04F
04F
04F
04F
04E
04E
04E
04E
04E
04E
04E
04E
04E
04E
04E
04E
04E
04E
04E
04E
04E
04E
04D
04D
04D
04D
04D
04D
04D
04D
04D
04D
04D
04D
04D
04D
04D
04D
04D
04D
04C
04C
04C
04C
04C
04C
04C
04C
04C
04C
04C
04C
04C
04C
04C
04C
04C
04C
04B
04B
04B
04B
04B
04B
04B
04B
04B
04B
04B
04B
04B
04B
04B
04B
04B
04B
04B
04B
04A
04A
04A
04A
04A
04A
04A
04A
04A
04A
04A
04A
04A
04A
04A
04A
04A
04A
04A
04A
049
049
049
049
049
049
049
049
049
049
049
049
049
049
049
049
049
049
049
049
049
048
048
048
048
048
048
048
048
048
048
048
048
048
048
048
048
048
048
048
048
048
048
047
047
047
047
047
047
047
047
047
047
047
047
047
047
047
047
047
047
047
047
047
047
047
046
046
046
046
046
046
046
046
046
046
046
046
046
046
046
046
046
046
046
046
046
046
046
046
045
045
045
045
045
045
045
045
045
045
045
045
045
045
045
045
045
045
045
045
045
045
045
045
045
044
044
044
044
044
044
044
044
044
044
044
044
044
044
044
044
044
044
044
044
044
044
044
044
044
044
043
043
043
043
043
043
043
043
043
043
043
043
043
043
043
043
043
043
043
043
043
043
043
043
043
043
043
043
042
042
042
042
042
042
042
042
042
042
042
042
042
042
042
042
042
042
042
042
042
042
042
042
042
042
042
042
041
041
041
041
041
041
041
041
041
041
041
041
041
041
041
041
041
041
041
041
041
041
041
041
041
041
041
041
041
041
040
040
040
040
040
040
040
040
040
040
040
040
040
040
040
040
040
040
040
040
040
040
040
040
040
040
040
040
040
040
040
03F
03F
03F
03F
03F
03F
03F
03F
03F
03F
03F
03F
03F
03F
03F
03F
03F
03F
03F
03F
03F
03F
03F
03F
03F
03F
03F
03F
03F
03F
03F
03F
03F
03E
03E
03E
03E
03E
03E
03E
03E
03E
03E
03E
03E
03E
03E
03E
03E
03E
03E
03E
03E
03E
03E
03E
03E
03E
03E
03E
03E
03E
03E
03E
03E
03E
03E
03D
03D
03D
03D
03D
03D
03D
03D
03D
03D
03D
03D
03D
03D
03D
03D
03D
03D
03D
03D
03D
03D
03D
03D
03D
03D
03D
03D
03D
03D
03D
03D
03D
03D
03D
03D
03D
03C
03C
03C
03C
03C
03C
03C
03C
03C
03C
03C
03C
03C
03C
03C
03C
03C
03C
03C
03C
03C
03C
03C
03C
03C
03C
03C
03C
03C
03C
03C
03C
03C
03C
03C
03C
03C
03B
03B
03B
03B
03B
03B
03B
03B
03B
03B
03B
03B
03B
03B
03B
03B
03B
03B
03B
03B
03B
03B
03B
03B
03B
03B
03B
03B
03B
03B
03B
03B
03B
03B
03B
03B
03B
03B
03B
03B
03A
03A
03A
03A
03A
03A
03A
03A
03A
03A
03A
03A
03A
03A
03A
03A
03A
03A
03A
03A
03A
03A
03A
03A
03A
03A
03A
03A
03A
03A
03A
03A
03A
03A
03A
03A
03A
03A
03A
03A
03A
03A
039
039
039
039
039
039
039
039
039
039
039
039
039
039
039
039
039
039
039
039
039
039
039
039
039
039
039
039
039
039
039
039
039
039
039
039
039
039
039
039
039
039
039
039
038
038
038
038
038
038
038
038
038
038
038
038
038
038
038
038
038
038
038
038
038
038
038
038
038
038
038
038
038
038
038
038
038
038
038
038
038
038
038
038
038
038
038
038
038
038
038
037
037
037
037
037
037
037
037
037
037
037
037
037
037
037
037
037
037
037
037
037
037
037
037
037
037
037
037
037
037
037
037
037
037
037
037
037
037
037
037
037
037
037
037
037
037
037
037
037
036
036
036
036
036
036
036
036
036
036
036
036
036
036
036
036
036
036
036
036
036
036
036
036
036
036
036
036
036
036
036
036
036
036
036
036
036
036
036
036
036
036
036
036
036
036
036
036
036
036
036
036
035
035
035
035
035
035
035
035
035
035
035
035
035
035
035
035
035
035
035
035
035
035
035
035
035
035
035
035
035
035
035
035
035
035
035
035
035
035
035
035
035
035
035
035
035
035
035
035
035
035
035
035
035
035
035
034
034
034
034
034
034
034
034
034
034
034
034
034
034
034
034
034
034
034
034
034
034
034
034
034
034
034
034
034
034
034
034
034
034
034
034
034
034
034
034
034
034
034
034
034
034
034
034
034
034
034
034
034
034
034
034
034
033
033
033
033
033
033
033
033
033
033
033
033
033
033
033
033
033
033
033
033
033
033
033
033
033
033
033
033
033
033
033
033
033
033
033
033
033
033
033
033
033
033
033
033
033
033
033
033
033
033
033
033
033
033
033
033
033
033
033
033
033
033
032
032
032
032
032
032
032
032
032
032
032
032
032
032
032
032
032
032
032
032
032
032
032
032
032
032
032
032
032
032
032
032
032
032
032
032
032
032
032
032
032
032
032
032
032
032
032
032
032
032
032
032
032
032
032
032
032
032
032
032
032
032
032
032
032
031
031
031
031
031
031
031
031
031
031
031
031
031
031
031
031
031
031
031
031
031
031
031
031
031
031
031
031
031
031
031
031
031
031
031
031
031
031
031
031
031
031
031
031
031
031
031
031
031
031
031
031
031
031
031
031
031
031
031
031
031
031
031
031
031
031
031
031
031
030
030
030
030
030
030
030
030
030
030
030
030
030
030
030
030
030
030
030
030
030
030
030
030
030
030
030
030
030
030
030
030
030
030
030
030
030
030
030
030
030
030
030
030
030
030
030
030
030
030
030
030
030
030
030
030
030
030
030
030
030
030
030
030
030
030
030
030
030
030
030
030
030
030
02F
02F
02F
02F
02F
02F
02F
02F
02F
02F
02F
02F
02F
02F
02F
02F
02F
02F
02F
02F
02F
02F
02F
02F
02F
02F
02F
02F
02F
02F
02F
02F
02F
02F
02F
02F
02F
02F
02F
02F
02F
02F
02F
02F
02F
02F
02F
02F
02F
02F
02F
02F
02F
02F
02F
02F
02F
02F
02F
02F
02F
02F
02F
02F
02F
02F
02F
02F
02F
02F
02F
02F
02F
02F
02F
02F
02F
02F
02E
02E
02E
02E
02E
02E
02E
02E
02E
02E
02E
02E
02E
02E
02E
02E
02E
02E
02E
02E
02E
02E
02E
02E
02E
02E
02E
02E
02E
02E
02E
02E
02E
02E
02E
02E
02E
02E
02E
02E
02E
02E
02E
02E
02E
02E
02E
02E
02E
02E
02E
02E
02E
02E
02E
02E
02E
02E
02E
02E
02E
02E
02E
02E
02E
02E
02E
02E
02E
02E
02E
02E
02E
02E
02E
02E
02E
02E
02E
02E
02E
02E
02E
02E
02D
02D
02D
02D
02D
02D
02D
02D
02D
02D
02D
02D
02D
02D
02D
02D
02D
02D
02D
02D
02D
02D
02D
02D
02D
02D
02D
02D
02D
02D
02D
02D
02D
02D
02D
02D
02D
02D
02D
02D
02D
02D
02D
02D
02D
02D
02D
02D
02D
02D
02D
02D
02D
02D
02D
02D
02D
02D
02D
02D
02D
02D
02D
02D
02D
02D
02D
02D
02D
02D
02D
02D
02D
02D
02D
02D
02D
02D
02D
02D
02D
02D
02D
02D
02D
02D
02D
02D
02D
02C
02C
02C
02C
02C
02C
02C
02C
02C
02C
02C
02C
02C
02C
02C
02C
02C
02C
02C
02C
02C
02C
02C
02C
02C
02C
02C
02C
02C
02C
02C
02C
02C
02C
02C
02C
02C
02C
02C
02C
02C
02C
02C
02C
02C
02C
02C
02C
02C
02C
02C
02C
02C
02C
02C
02C
02C
02C
02C
02C
02C
02C
02C
02C
02C
02C
02C
02C
02C
02C
02C
02C
02C
02C
02C
02C
02C
02C
02C
02C
02C
02C
02C
02C
02C
02C
02C
02C
02C
02C
02C
02C
02C
02C
02C
02B
02B
02B
02B
02B
02B
02B
02B
02B
02B
02B
02B
02B
02B
02B
02B
02B
02B
02B
02B
02B
02B
02B
02B
02B
02B
02B
02B
02B
02B
02B
02B
02B
02B
02B
02B
02B
02B
02B
02B
02B
02B
02B
02B
02B
02B
02B
02B
02B
02B
02B
02B
02B
02B
02B
02B
02B
02B
02B
02B
02B
02B
02B
02B
02B
02B
02B
02B
02B
02B
02B
02B
02B
02B
02B
02B
02B
02B
02B
02B
02B
02B
02B
02B
02B
02B
02B
02B
02B
02B
02B
02B
02B
02B
02B
02B
02B
02B
02B
02B
02B
02B
02A
02A
02A
02A
02A
02A
02A
02A
02A
02A
02A
02A
02A
02A
02A
02A
02A
02A
02A
02A
02A
02A
02A
02A
02A
02A
02A
02A
02A
02A
02A
02A
02A
02A
02A
02A
02A
02A
02A
02A
02A
02A
02A
02A
02A
02A
02A
02A
02A
02A
02A
02A
02A
02A
02A
02A
02A
02A
02A
02A
02A
02A
02A
02A
02A
02A
02A
02A
02A
02A
02A
02A
02A
02A
02A
02A
02A
02A
02A
02A
02A
02A
02A
02A
02A
02A
02A
02A
02A
02A
02A
02A
02A
02A
02A
02A
02A
02A
02A
02A
02A
02A
02A
02A
02A
02A
02A
02A
02A
029
029
029
029
029
029
029
029
029
029
029
029
029
029
029
029
029
029
029
029
029
029
029
029
029
029
029
029
029
029
029
029
029
029
029
029
029
029
029
029
029
029
029
029
029
029
029
029
029
029
029
029
029
029
029
029
029
029
029
029
029
029
029
029
029
029
029
029
029
029
029
029
029
029
029
029
029
029
029
029
029
029
029
029
029
029
029
029
029
029
029
029
029
029
029
029
029
029
029
029
029
029
029
029
029
029
029
029
029
029
029
029
029
029
029
029
029
028
028
028
028
028
028
028
028
028
028
028
028
028
028
028
028
028
028
028
028
028
028
028
028
028
028
028
028
028
028
028
028
028
028
028
028
028
028
028
028
028
028
028
028
028
028
028
028
028
028
028
028
028
028
028
028
028
028
028
028
028
028
028
028
028
028
028
028
028
028
028
028
028
028
028
028
028
028
028
028
028
028
028
028
028
028
028
028
028
028
028
028
028
028
028
028
028
028
028
028
028
028
028
028
028
028
028
028
028
028
028
028
028
028
028
028
028
028
028
028
028
028
028
028
028
028
028
027
027
027
027
027
027
027
027
027
027
027
027
027
027
027
027
027
027
027
027
027
027
027
027
027
027
027
027
027
027
027
027
027
027
027
027
027
027
027
027
027
027
027
027
027
027
027
027
027
027
027
027
027
027
027
027
027
027
027
027
027
027
027
027
027
027
027
027
027
027
027
027
027
027
027
027
027
027
027
027
027
027
027
027
027
027
027
027
027
027
027
027
027
027
027
027
027
027
027
027
027
027
027
027
027
027
027
027
027
027
027
027
027
027
027
027
027
027
027
027
027
027
027
027
027
027
027
027
027
027
027
027
027
027
027
027
026
026
026
026
026
026
026
026
026
026
026
026
026
026
026
026
026
026
026
026
026
026
026
026
026
026
026
026
026
026
026
026
026
026
026
026
026
026
026
026
026
026
026
026
026
026
026
026
026
026
026
026
026
026
026
026
026
026
026
026
026
026
026
026
026
026
026
026
026
026
026
026
026
026
026
026
026
026
026
026
026
026
026
026
026
026
026
026
026
026
026
026
026
026
026
026
026
026
026
026
026
026
026
026
026
026
026
026
026
026
026
026
026
026
026
026
026
026
026
026
026
026
026
026
026
026
026
026
026
026
026
026
026
026
026
026
026
026
026
026
026
026
026
026
026
026
026
025
025
025
025
025
025
025
025
025
025
025
025
025
025
025
025
025
025
025
025
025
025
025
025
025
025
025
025
025
025
025
025
025
025
025
025
025
025
025
025
025
025
025
025
025
025
025
025
025
025
025
025
025
025
025
025
025
025
025
025
025
025
025
025
025
025
025
025
025
025
025
025
025
025
025
025
025
025
025
025
025
025
025
025
025
025
025
025
025
025
025
025
025
025
025
025
025
025
025
025
025
025
025
025
025
025
025
025
025
025
025
025
025
025
025
025
025
025
025
025
025
025
025
025
025
025
025
025
025
025
025
025
025
025
025
025
025
025
025
025
025
025
025
025
025
025
025
025
025
025
025
025
025
025
025
025
025
025
025
024
024
024
024
024
024
024
024
024
024
024
024
024
024
024
024
024
024
024
024
024
024
024
024
024
024
024
024
024
024
024
024
024
024
024
024
024
024
024
024
024
024
024
024
024
024
024
024
024
024
024
024
024
024
024
024
024
024
024
024
024
024
024
024
024
024
024
024
024
024
024
024
024
024
024
024
024
024
024
024
024
024
024
024
024
024
024
024
024
024
024
024
024
024
024
024
024
024
024
024
024
024
024
024
024
024
024
024
024
024
024
024
024
024
024
024
024
024
024
024
024
024
024
024
024
024
024
024
024
024
024
024
024
024
024
024
024
024
024
024
024
024
024
024
024
024
024
024
024
024
024
024
024
024
024
024
024
024
024
024
024
024
024
024
024
024
024
024
024
024
024
024
024
023
023
023
023
023
023
023
023
023
023
023
023
023
023
023
023
023
023
023
023
023
023
023
023
023
023
023
023
023
023
023
023
023
023
023
023
023
023
023
023
023
023
023
023
023
023
023
023
023
023
023
023
023
023
023
023
023
023
023
023
023
023
023
023
023
023
023
023
023
023
023
023
023
023
023
023
023
023
023
023
023
023
023
023
023
023
023
023
023
023
023
023
023
023
023
023
023
023
023
023
023
023
023
023
023
023
023
023
023
023
023
023
023
023
023
023
023
023
023
023
023
023
023
023
023
023
023
023
023
023
023
023
023
023
023
023
023
023
023
023
023
023
023
023
023
023
023
023
023
023
023
023
023
023
023
023
023
023
023
023
023
023
023
023
023
023
023
023
023
023
023
023
023
023
023
023
023
023
023
023
023
023
023
023
023
023
023
022
022
022
022
022
022
022
022
022
022
022
022
022
022
022
022
022
022
022
022
022
022
022
022
022
022
022
022
022
022
022
022
022
022
022
022
022
022
022
022
022
022
022
022
022
022
022
022
022
022
022
022
022
022
022
022
022
022
022
022
022
022
022
022
022
022
022
022
022
022
022
022
022
022
022
022
022
022
022
022
022
022
022
022
022
022
022
022
022
022
022
022
022
022
022
022
022
022
022
022
022
022
022
022
022
022
022
022
022
022
022
022
022
022
022
022
022
022
022
022
022
022
022
022
022
022
022
022
022
022
022
022
022
022
022
022
022
022
022
022
022
022
022
022
022
022
022
022
022
022
022
022
022
022
022
022
022
022
022
022
022
022
022
022
022
022
022
022
022
022
022
022
022
022
022
022
022
022
022
022
022
022
022
022
022
022
022
022
022
022
022
022
022
022
022
022
022
022
022
022
022
022
022
022
022
021
021
021
021
021
021
021
021
021
021
021
021
021
021
021
021
021
021
021
021
021
021
021
021
021
021
021
021
021
021
021
021
021
021
021
021
021
021
021
021
021
021
021
021
021
021
021
021
021
021
021
021
021
021
021
021
021
021
021
021
021
021
021
021
021
021
021
021
021
021
021
021
021
021
021
021
021
021
021
021
021
021
021
021
021
021
021
021
021
021
021
021
021
021
021
021
021
021
021
021
021
021
021
021
021
021
021
021
021
021
021
021
021
021
021
021
021
021
021
021
021
021
021
021
021
021
021
021
021
021
021
021
021
021
021
021
021
021
021
021
021
021
021
021
021
021
021
021
021
021
021
021
021
021
021
021
021
021
021
021
021
021
021
021
021
021
021
021
021
021
021
021
021
021
021
021
021
021
021
021
021
021
021
021
021
021
021
021
021
021
021
021
021
021
021
021
021
021
021
021
021
021
021
021
021
021
021
021
021
021
021
021
021
021
021
021
021
021
021
021
021
021
021
020
020
020
020
020
020
020
020
020
020
020
020
020
020
020
020
020
020
020
020
020
020
020
020
020
020
020
020
020
020
020
020
020
020
020
020
020
020
020
020
020
020
020
020
020
020
020
020
020
020
020
020
020
020
020
020
020
020
020
020
020
020
020
020
020
020
020
020
020
020
020
020
020
020
020
020
020
020
020
020
020
020
020
020
020
020
020
020
020
020
020
020
020
020
020
020
020
020
020
020
020
020
020
020
020
020
020
020
020
020
020
020
020
020
020
020
020
020
020
020
020
020
020
020
020
020
020
020
020
020
020
020
020
020
020
020
020
020
020
020
020
020
020
020
020
020
020
020
020
020
020
020
020
020
020
020
020
020
020
020
020
020
020
020
020
020
020
020
020
020
020
020
020
020
020
020
020
020
020
020
020
020
020
020
020
020
020
020
020
020
020
020
020
020
020
020
020
020
020
020
020
020
020
020
020
020
020
020
020
020
020
020
020
020
020
020
020
020
020
020
020
020
020
020
020
020
020
020
020
020
020
020
020
020
020
020
020
020
020
020
020
020
020
020
01F
01F
01F
01F
01F
01F
01F
01F
01F
01F
01F
01F
01F
01F
01F
01F
01F
01F
01F
01F
01F
01F
01F
01F
01F
01F
01F
01F
01F
01F
01F
01F
01F
01F
01F
01F
01F
01F
01F
01F
01F
01F
01F
01F
01F
01F
01F
01F
01F
01F
01F
01F
01F
01F
01F
01F
01F
01F
01F
01F
01F
01F
01F
01F
01F
01F
01F
01F
01F
01F
01F
01F
01F
01F
01F
01F
01F
01F
01F
01F
01F
01F
01F
01F
01F
01F
01F
01F
01F
01F
01F
01F
01F
01F
01F
01F
01F
01F
01F
01F
01F
01F
01F
01F
01F
01F
01F
01F
01F
01F
01F
01F
01F
01F
01F
01F
01F
01F
01F
01F
01F
01F
01F
01F
01F
01F
01F
01F
01F
01F
01F
01F
01F
01F
01F
01F
01F
01F
01F
01F
01F
01F
01F
01F
01F
01F
01F
01F
01F
01F
01F
01F
01F
01F
01F
01F
01F
01F
01F
01F
01F
01F
01F
01F
01F
01F
01F
01F
01F
01F
01F
01F
01F
01F
01F
01F
01F
01F
01F
01F
01F
01F
01F
01F
01F
01F
01F
01F
01F
01F
01F
01F
01F
01F
01F
01F
01F
01F
01F
01F
01F
01F
01F
01F
01F
01F
01F
01F
01F
01F
01F
01F
01F
01F
01F
01F
01F
01F
01F
01F
01F
01F
01F
01F
01F
01F
01F
01F
01F
01F
01F
01F
01F
01F
01F
01F
01F
01F
01F
01F
01F
01F
01F
01F
01F
01F
01F
01F
01F
01F
01F
01F
01F
01F
01F
01F
01F
01F
01F
01F
01F
01F
01F
01F
01F
01F
01F
01F
01F
01E
01E
01E
01E
01E
01E
01E
01E
01E
01E
01E
01E
01E
01E
01E
01E
01E
01E
01E
01E
01E
01E
01E
01E
01E
01E
01E
01E
01E
01E
01E
01E
01E
01E
01E
01E
01E
01E
01E
01E
01E
01E
01E
01E
01E
01E
01E
01E
01E
01E
01E
01E
01E
01E
01E
01E
01E
01E
01E
01E
01E
01E
01E
01E
01E
01E
01E
01E
01E
01E
01E
01E
01E
01E
01E
01E
01E
01E
01E
01E
01E
01E
01E
01E
01E
01E
01E
01E
01E
01E
01E
01E
01E
01E
01E
01E
01E
01E
01E
01E
01E
01E
01E
01E
01E
01E
01E
01E
01E
01E
01E
01E
01E
01E
01E
01E
01E
01E
01E
01E
01E
01E
01E
01E
01E
01E
01E
01E
01E
01E
01E
01E
01E
01E
01E
01E
01E
01E
01E
01E
01E
01E
01E
01E
01E
01E
01E
01E
01E
01E
01E
01E
01E
01E
01E
01E
01E
01E
01E
01E
01E
01E
01E
01E
01E
01E
01E
01E
01E
01E
01E
01E
01E
01E
01E
01E
01E
01E
01E
01E
01E
01E
01E
01E
01E
01E
01E
01E
01E
01E
01E
01E
01E
01E
01E
01E
01E
01E
01E
01E
01E
01E
01E
01E
01E
01E
01E
01E
01E
01E
01E
01E
01E
01E
01E
01E
01E
01E
01E
01E
01E
01E
01E
01E
01E
01E
01E
01E
01E
01E
01E
01E
01E
01E
01E
01E
01E
01E
01E
01E
01E
01E
01E
01E
01E
01E
01E
01E
01E
01E
01E
01E
01E
01E
01E
01E
01E
01E
01E
01E
01E
01E
01E
01E
01E
01E
01E
01E
01E
01E
01E
01E
01E
01E
01E
01E
01E
01E
01E
01E
01E
01E
01E
01E
01E
01E
01E
01E
01E
01E
01E
01E
01E
01E
01E
01E
01D
01D
01D
01D
01D
01D
01D
01D
01D
01D
01D
01D
01D
01D
01D
01D
01D
01D
01D
01D
01D
01D
01D
01D
01D
01D
01D
01D
01D
01D
01D
01D
01D
01D
01D
01D
01D
01D
01D
01D
01D
01D
01D
01D
01D
01D
01D
01D
01D
01D
01D
01D
01D
01D
01D
01D
01D
01D
01D
01D
01D
01D
01D
01D
01D
01D
01D
01D
01D
01D
01D
01D
01D
01D
01D
01D
01D
01D
01D
01D
01D
01D
01D
01D
01D
01D
01D
01D
01D
01D
01D
01D
01D
01D
01D
01D
01D
01D
01D
01D
01D
01D
01D
01D
01D
01D
01D
01D
01D
01D
01D
01D
01D
01D
01D
01D
01D
01D
01D
01D
01D
01D
01D
01D
01D
01D
01D
01D
01D
01D
01D
01D
01D
01D
01D
01D
01D
01D
01D
01D
01D
01D
01D
01D
01D
01D
01D
01D
01D
01D
01D
01D
01D
01D
01D
01D
01D
01D
01D
01D
01D
01D
01D
01D
01D
01D
01D
01D
01D
01D
01D
01D
01D
01D
01D
01D
01D
01D
01D
01D
01D
01D
01D
01D
01D
01D
01D
01D
01D
01D
01D
01D
01D
01D
01D
01D
01D
01D
01D
01D
01D
01D
01D
01D
01D
01D
01D
01D
01D
01D
01D
01D
01D
01D
01D
01D
01D
01D
01D
01D
01D
01D
01D
01D
01D
01D
01D
01D
01D
01D
01D
01D
01D
01D
01D
01D
01D
01D
01D
01D
01D
01D
01D
01D
01D
01D
01D
01D
01D
01D
01D
01D
01D
01D
01D
01D
01D
01D
01D
01D
01D
01D
01D
01D
01D
01D
01D
01D
01D
01D
01D
01D
01D
01D
01D
01D
01D
01D
01D
01D
01D
01D
01D
01D
01D
01D
01D
01D
01D
01D
01D
01D
01D
01D
01D
01D
01D
01D
01D
01D
01D
01D
01D
01D
01D
01D
01D
01D
01D
01D
01D
01D
01D
01D
01D
01D
01D
01D
01D
01D
01D
01D
01D
01D
01D
01D
01D
01C
01C
01C
01C
01C
01C
01C
01C
01C
01C
01C
01C
01C
01C
01C
01C
01C
01C
01C
01C
01C
01C
01C
01C
01C
01C
01C
01C
01C
01C
01C
01C
01C
01C
01C
01C
01C
01C
01C
01C
01C
01C
01C
01C
01C
01C
01C
01C
01C
01C
01C
01C
01C
01C
01C
01C
01C
01C
01C
01C
01C
01C
01C
01C
01C
01C
01C
01C
01C
01C
01C
01C
01C
01C
01C
01C
01C
01C
01C
01C
01C
01C
01C
01C
01C
01C
01C
01C
01C
01C
01C
01C
01C
01C
01C
01C
01C
01C
01C
01C
01C
01C
01C
01C
01C
01C
01C
01C
01C
01C
01C
01C
01C
01C
01C
01C
01C
01C
01C
01C
01C
01C
01C
01C
01C
01C
01C
01C
01C
01C
01C
01C
01C
01C
01C
01C
01C
01C
01C
01C
01C
01C
01C
01C
01C
01C
01C
01C
01C
01C
01C
01C
01C
01C
01C
01C
01C
01C
01C
01C
01C
01C
01C
01C
01C
01C
01C
01C
01C
01C
01C
01C
01C
01C
01C
01C
01C
01C
01C
01C
01C
01C
01C
01C
01C
01C
01C
01C
01C
01C
01C
01C
01C
01C
01C
01C
01C
01C
01C
01C
01C
01C
01C
01C
01C
01C
01C
01C
01C
01C
01C
01C
01C
01C
01C
01C
01C
01C
01C
01C
01C
01C
01C
01C
01C
01C
01C
01C
01C
01C
01C
01C
01C
01C
01C
01C
01C
01C
01C
01C
01C
01C
01C
01C
01C
01C
01C
01C
01C
01C
01C
01C
01C
01C
01C
01C
01C
01C
01C
01C
01C
01C
01C
01C
01C
01C
01C
01C
01C
01C
01C
01C
01C
01C
01C
01C
01C
01C
01C
01C
01C
01C
01C
01C
01C
01C
01C
01C
01C
01C
01C
01C
01C
01C
01C
01C
01C
01C
01C
01C
01C
01C
01C
01C
01C
01C
01C
01C
01C
01C
01C
01C
01C
01C
01C
01C
01C
01C
01C
01C
01C
01C
01C
01C
01C
01C
01C
01C
01C
01C
01C
01C
01C
01C
01C
01C
01C
01C
01C
01C
01C
01C
01C
01C
01C
01C
01C
01C
01C
01C
01C
01C
01C
01C
01C
01C
01C
01C
01C
01C
01C
01C
01B
01B
01B
01B
01B
01B
01B
01B
01B
01B
01B
01B
01B
01B
01B
01B
01B
01B
01B
01B
01B
01B
01B
01B
01B
01B
01B
01B
01B
01B
01B
01B
01B
01B
01B
01B
01B
01B
01B
01B
01B
01B
01B
01B
01B
01B
01B
01B
01B
01B
01B
01B
01B
01B
01B
01B
01B
01B
01B
01B
01B
01B
01B
01B
01B
01B
01B
01B
01B
01B
01B
01B
01B
01B
01B
01B
01B
01B
01B
01B
01B
01B
01B
01B
01B
01B
01B
01B
01B
01B
01B
01B
01B
01B
01B
01B
01B
01B
01B
01B
01B
01B
01B
01B
01B
01B
01B
01B
01B
01B
01B
01B
01B
01B
01B
01B
01B
01B
01B
01B
01B
01B
01B
01B
01B
01B
01B
01B
01B
01B
01B
01B
01B
01B
01B
01B
01B
01B
01B
01B
01B
01B
01B
01B
01B
01B
01B
01B
01B
01B
01B
01B
01B
01B
01B
01B
01B
01B
01B
01B
01B
01B
01B
01B
01B
01B
01B
01B
01B
01B
01B
01B
01B
01B
01B
01B
01B
01B
01B
01B
01B
01B
01B
01B
01B
01B
01B
01B
01B
01B
01B
01B
01B
01B
01B
01B
01B
01B
01B
01B
01B
01B
01B
01B
01B
01B
01B
01B
01B
01B
01B
01B
01B
01B
01B
01B
01B
01B
01B
01B
01B
01B
01B
01B
01B
01B
01B
01B
01B
01B
01B
01B
01B
01B
01B
01B
01B
01B
01B
01B
01B
01B
01B
01B
01B
01B
01B
01B
01B
01B
01B
01B
01B
01B
01B
01B
01B
01B
01B
01B
01B
01B
01B
01B
01B
01B
01B
01B
01B
01B
01B
01B
01B
01B
01B
01B
01B
01B
01B
01B
01B
01B
01B
01B
01B
01B
01B
01B
01B
01B
01B
01B
01B
01B
01B
01B
01B
01B
01B
01B
01B
01B
01B
01B
01B
01B
01B
01B
01B
01B
01B
01B
01B
01B
01B
01B
01B
01B
01B
01B
01B
01B
01B
01B
01B
01B
01B
01B
01B
01B
01B
01B
01B
01B
01B
01B
01B
01B
01B
01B
01B
01B
01B
01B
01B
01B
01B
01B
01B
01B
01B
01B
01B
01B
01B
01B
01B
01B
01B
01B
01B
01B
01B
01B
01B
01B
01B
01B
01B
01B
01B
01B
01B
01B
01B
01B
01B
01B
01B
01B
01B
01B
01B
01B
01B
01B
01B
01B
01B
01B
01B
01B
01B
01B
01B
01B
01B
01B
01B
01B
01B
01B
01B
01B
01A
01A
01A
01A
01A
01A
01A
01A
01A
01A
01A
01A
01A
01A
01A
01A
01A
01A
01A
01A
01A
01A
01A
01A
01A
01A
01A
01A
01A
01A
01A
01A
01A
01A
01A
01A
01A
01A
01A
01A
01A
01A
01A
01A
01A
01A
01A
01A
01A
01A
01A
01A
01A
01A
01A
01A
01A
01A
01A
01A
01A
01A
01A
01A
01A
01A
01A
01A
01A
01A
01A
01A
01A
01A
01A
01A
01A
01A
01A
01A
01A
01A
01A
01A
01A
01A
01A
01A
01A
01A
01A
01A
01A
01A
01A
01A
01A
01A
01A
01A
01A
01A
01A
01A
01A
01A
01A
01A
01A
01A
01A
01A
01A
01A
01A
01A
01A
01A
01A
01A
01A
01A
01A
01A
01A
01A
01A
01A
01A
01A
01A
01A
01A
01A
01A
01A
01A
01A
01A
01A
01A
01A
01A
01A
01A
01A
01A
01A
01A
01A
01A
01A
01A
01A
01A
01A
01A
01A
01A
01A
01A
01A
01A
01A
01A
01A
01A
01A
01A
01A
01A
01A
01A
01A
01A
01A
01A
01A
01A
01A
01A
01A
01A
01A
01A
01A
01A
01A
01A
01A
01A
01A
01A
01A
01A
01A
01A
01A
01A
01A
01A
01A
01A
01A
01A
01A
01A
01A
01A
01A
01A
01A
01A
01A
01A
01A
01A
01A
01A
01A
01A
01A
01A
01A
01A
01A
01A
01A
01A
01A
01A
01A
01A
01A
01A
01A
01A
01A
01A
01A
01A
01A
01A
01A
01A
01A
01A
01A
01A
01A
01A
01A
01A
01A
01A
01A
01A
01A
01A
01A
01A
01A
01A
01A
01A
01A
01A
01A
01A
01A
01A
01A
01A
01A
01A
01A
01A
01A
01A
01A
01A
01A
01A
01A
01A
01A
01A
01A
01A
01A
01A
01A
01A
01A
01A
01A
01A
01A
01A
01A
01A
01A
01A
01A
01A
01A
01A
01A
01A
01A
01A
01A
01A
01A
01A
01A
01A
01A
01A
01A
01A
01A
01A
01A
01A
01A
01A
01A
01A
01A
01A
01A
01A
01A
01A
01A
01A
01A
01A
01A
01A
01A
01A
01A
01A
01A
01A
01A
01A
01A
01A
01A
01A
01A
01A
01A
01A
01A
01A
01A
01A
01A
01A
01A
01A
01A
01A
01A
01A
01A
01A
01A
01A
01A
01A
01A
01A
01A
01A
01A
01A
01A
01A
01A
01A
01A
01A
01A
01A
01A
01A
01A
01A
01A
01A
01A
01A
01A
01A
01A
01A
01A
01A
01A
01A
01A
01A
01A
01A
01A
01A
01A
01A
01A
01A
01A
01A
01A
01A
01A
01A
01A
01A
01A
01A
01A
01A
01A
01A
01A
01A
01A
01A
01A
01A
01A
01A
01A
01A
01A
01A
01A
01A
01A
01A
01A
01A
01A
01A
01A
01A
019
019
019
019
019
019
019
019
019
019
019
019
019
019
019
019
019
019
019
019
019
019
019
019
019
019
019
019
019
019
019
019
019
019
019
019
019
019
019
019
019
019
019
019
019
019
019
019
019
019
019
019
019
019
019
019
019
019
019
019
019
019
019
019
019
019
019
019
019
019
019
019
019
019
019
019
019
019
019
019
019
019
019
019
019
019
019
019
019
019
019
019
019
019
019
019
019
019
019
019
019
019
019
019
019
019
019
019
019
019
019
019
019
019
019
019
019
019
019
019
019
019
019
019
019
019
019
019
019
019
019
019
019
019
019
019
019
019
019
019
019
019
019
019
019
019
019
019
019
019
019
019
019
019
019
019
019
019
019
019
019
019
019
019
019
019
019
019
019
019
019
019
019
019
019
019
019
019
019
019
019
019
019
019
019
019
019
019
019
019
019
019
019
019
019
019
019
019
019
019
019
019
019
019
019
019
019
019
019
019
019
019
019
019
019
019
019
019
019
019
019
019
019
019
019
019
019
019
019
019
019
019
019
019
019
019
019
019
019
019
019
019
019
019
019
019
019
019
019
019
019
019
019
019
019
019
019
019
019
019
019
019
019
019
019
019
019
019
019
019
019
019
019
019
019
019
019
019
019
019
019
019
019
019
019
019
019
019
019
019
019
019
019
019
019
019
019
019
019
019
019
019
019
019
019
019
019
019
019
019
019
019
019
019
019
019
019
019
019
019
019
019
019
019
019
019
019
019
019
019
019
019
019
019
019
019
019
019
019
019
019
019
019
019
019
019
019
019
019
019
019
019
019
019
019
019
019
019
019
019
019
019
019
019
019
019
019
019
019
019
019
019
019
019
019
019
019
019
019
019
019
019
019
019
019
019
019
019
019
019
019
019
019
019
019
019
019
019
019
019
019
019
019
019
019
019
019
019
019
019
019
019
019
019
019
019
019
019
019
019
019
019
019
019
019
019
019
019
019
019
019
019
019
019
019
019
019
019
019
019
019
019
019
019
019
019
019
019
019
019
019
019
019
019
019
019
019
019
019
019
019
019
019
019
019
019
019
019
019
019
019
019
019
019
019
019
019
019
019
019
019
019
019
019
019
019
019
019
019
019
019
019
019
019
019
019
019
019
019
019
019
019
019
019
019
019
018
018
018
018
018
018
018
018
018
018
018
018
018
018
018
018
018
018
018
018
018
018
018
018
018
018
018
018
018
018
018
018
018
018
018
018
018
018
018
018
018
018
018
018
018
018
018
018
018
018
018
018
018
018
018
018
018
018
018
018
018
018
018
018
018
018
018
018
018
018
018
018
018
018
018
018
018
018
018
018
018
018
018
018
018
018
018
018
018
018
018
018
018
018
018
018
018
018
018
018
018
018
018
018
018
018
018
018
018
018
018
018
018
018
018
018
018
018
018
018
018
018
018
018
018
018
018
018
018
018
018
018
018
018
018
018
018
018
018
018
018
018
018
018
018
018
018
018
018
018
018
018
018
018
018
018
018
018
018
018
018
018
018
018
018
018
018
018
018
018
018
018
018
018
018
018
018
018
018
018
018
018
018
018
018
018
018
018
018
018
018
018
018
018
018
018
018
018
018
018
018
018
018
018
018
018
018
018
018
018
018
018
018
018
018
018
018
018
018
018
018
018
018
018
018
018
018
018
018
018
018
018
018
018
018
018
018
018
018
018
018
018
018
018
018
018
018
018
018
018
018
018
018
018
018
018
018
018
018
018
018
018
018
018
018
018
018
018
018
018
018
018
018
018
018
018
018
018
018
018
018
018
018
018
018
018
018
018
018
018
018
018
018
018
018
018
018
018
018
018
018
018
018
018
018
018
018
018
018
018
018
018
018
018
018
018
018
018
018
018
018
018
018
018
018
018
018
018
018
018
018
018
018
018
018
018
018
018
018
018
018
018
018
018
018
018
018
018
018
018
018
018
018
018
018
018
018
018
018
018
018
018
018
018
018
018
018
018
018
018
018
018
018
018
018
018
018
018
018
018
018
018
018
018
018
018
018
018
018
018
018
018
018
018
018
018
018
018
018
018
018
018
018
018
018
018
018
018
018
018
018
018
018
018
018
018
018
018
018
018
018
018
018
018
018
018
018
018
018
018
018
018
018
018
018
018
018
018
018
018
018
018
018
018
018
018
018
018
018
018
018
018
018
018
018
018
018
018
018
018
018
018
018
018
018
018
018
018
018
018
018
018
018
018
018
018
018
018
018
018
018
018
018
018
018
018
018
018
018
018
018
018
018
018
018
018
018
018
018
018
018
018
018
018
018
018
018
018
018
018
018
018
018
018
018
018
018
018
018
018
018
018
018
018
018
018
018
018
018
018
018
018
018
018
018
018
018
018
018
018
018
018
018
018
018
018
018
018
018
018
018
018
018
018
018
018
018
018
018
018
018
018
018
018
018
018
018
018
018
018
018
017
017
017
017
017
017
017
017
017
017
017
017
017
017
017
017
017
017
017
017
017
017
017
017
017
017
017
017
017
017
017
017
017
017
017
017
017
017
017
017
017
017
017
017
017
017
017
017
017
017
017
017
017
017
017
017
017
017
017
017
017
017
017
017
017
017
017
017
017
017
017
017
017
017
017
017
017
017
017
017
017
017
017
017
017
017
017
017
017
017
017
017
017
017
017
017
017
017
017
017
017
017
017
017
017
017
017
017
017
017
017
017
017
017
017
017
017
017
017
017
017
017
017
017
017
017
017
017
017
017
017
017
017
017
017
017
017
017
017
017
017
017
017
017
017
017
017
017
017
017
017
017
017
017
017
017
017
017
017
017
017
017
017
017
017
017
017
017
017
017
017
017
017
017
017
017
017
017
017
017
017
017
017
017
017
017
017
017
017
017
017
017
017
017
017
017
017
017
017
017
017
017
017
017
017
017
017
017
017
017
017
017
017
017
017
017
017
017
017
017
017
017
017
017
017
017
017
017
017
017
017
017
017
017
017
017
017
017
017
017
017
017
017
017
017
017
017
017
017
017
017
017
017
017
017
017
017
017
017
017
017
017
017
017
017
017
017
017
017
017
017
017
017
017
017
017
017
017
017
017
017
017
017
017
017
017
017
017
017
017
017
017
017
017
017
017
017
017
017
017
017
017
017
017
017
017
017
017
017
017
017
017
017
017
017
017
017
017
017
017
017
017
017
017
017
017
017
017
017
017
017
017
017
017
017
017
017
017
017
017
017
017
017
017
017
017
017
017
017
017
017
017
017
017
017
017
017
017
017
017
017
017
017
017
017
017
017
017
017
017
017
017
017
017
017
017
017
017
017
017
017
017
017
017
017
017
017
017
017
017
017
017
017
017
017
017
017
017
017
017
017
017
017
017
017
017
017
017
017
017
017
017
017
017
017
017
017
017
017
017
017
017
017
017
017
017
017
017
017
017
017
017
017
017
017
017
017
017
017
017
017
017
017
017
017
017
017
017
017
017
017
017
017
017
017
017
017
017
017
017
017
017
017
017
017
017
017
017
017
017
017
017
017
017
017
017
017
017
017
017
017
017
017
017
017
017
017
017
017
017
017
017
017
017
017
017
017
017
017
017
017
017
017
017
017
017
017
017
017
017
017
017
017
017
017
017
017
017
017
017
017
017
017
017
017
017
017
017
017
017
017
017
017
017
017
017
017
017
017
017
017
017
017
017
017
017
017
017
017
017
017
017
017
017
017
017
017
017
017
017
017
017
017
017
017
017
017
017
017
017
017
017
017
017
017
017
017
017
017
017
017
017
017
017
017
017
017
017
017
017
017
017
017
017
017
017
017
017
017
017
017
017
017
017
017
017
017
017
017
017
017
017
017
017
017
017
017
017
017
017
017
017
017
017
017
017
017
017
017
017
017
017
017
017
017
017
017
017
017
017
017
017
017
017
017
017
017
016
016
016
016
016
016
016
016
016
016
016
016
016
016
016
016
016
016
016
016
016
016
016
016
016
016
016
016
016
016
016
016
016
016
016
016
016
016
016
016
016
016
016
016
016
016
016
016
016
016
016
016
016
016
016
016
016
016
016
016
016
016
016
016
016
016
016
016
016
016
016
016
016
016
016
016
016
016
016
016
016
016
016
016
016
016
016
016
016
016
016
016
016
016
016
016
016
016
016
016
016
016
016
016
016
016
016
016
016
016
016
016
016
016
016
016
016
016
016
016
016
016
016
016
016
016
016
016
016
016
016
016
016
016
016
016
016
016
016
016
016
016
016
016
016
016
016
016
016
016
016
016
016
016
016
016
016
016
016
016
016
016
016
016
016
016
016
016
016
016
016
016
016
016
016
016
016
016
016
016
016
016
016
016
016
016
016
016
016
016
016
016
016
016
016
016
016
016
016
016
016
016
016
016
016
016
016
016
016
016
016
016
016
016
016
016
016
016
016
016
016
016
016
016
016
016
016
016
016
016
016
016
016
016
016
016
016
016
016
016
016
016
016
016
016
016
016
016
016
016
016
016
016
016
016
016
016
016
016
016
016
016
016
016
016
016
016
016
016
016
016
016
016
016
016
016
016
016
016
016
016
016
016
016
016
016
016
016
016
016
016
016
016
016
016
016
016
016
016
016
016
016
016
016
016
016
016
016
016
016
016
016
016
016
016
016
016
016
016
016
016
016
016
016
016
016
016
016
016
016
016
016
016
016
016
016
016
016
016
016
016
016
016
016
016
016
016
016
016
016
016
016
016
016
016
016
016
016
016
016
016
016
016
016
016
016
016
016
016
016
016
016
016
016
016
016
016
016
016
016
016
016
016
016
016
016
016
016
016
016
016
016
016
016
016
016
016
016
016
016
016
016
016
016
016
016
016
016
016
016
016
016
016
016
016
016
016
016
016
016
016
016
016
016
016
016
016
016
016
016
016
016
016
016
016
016
016
016
016
016
016
016
016
016
016
016
016
016
016
016
016
016
016
016
016
016
016
016
016
016
016
016
016
016
016
016
016
016
016
016
016
016
016
016
016
016
016
016
016
016
016
016
016
016
016
016
016
016
016
016
016
016
016
016
016
016
016
016
016
016
016
016
016
016
016
016
016
016
016
016
016
016
016
016
016
016
016
016
016
016
016
016
016
016
016
016
016
016
016
016
016
016
016
016
016
016
016
016
016
016
016
016
016
016
016
016
016
016
016
016
016
016
016
016
016
016
016
016
016
016
016
016
016
016
016
016
016
016
016
016
016
016
016
016
016
016
016
016
016
016
016
016
016
016
016
016
016
016
016
016
016
016
016
016
016
016
016
016
016
016
016
016
016
016
016
016
016
016
016
016
016
016
016
016
016
016
016
016
016
016
016
016
016
016
016
016
016
016
016
016
016
016
016
016
016
016
016
016
016
016
016
016
016
016
016
016
016
016
016
016
016
016
016
016
016
016
016
016
016
016
016
016
016
016
016
016
016
016
016
016
016
016
016
016
016
016
016
016
016
016
016
016
016
016
016
016
016
016
016
016
016
016
016
016
016
016
016
016
016
016
016
016
016
016
016
016
016
016
016
016
016
016
016
016
016
016
016
016
016
016
016
016
016
016
016
016
016
016
016
016
016
016
016
016
016
016
016
015
015
015
015
015
015
015
015
015
015
015
015
015
015
015
015
015
015
015
015
015
015
015
015
015
015
015
015
015
015
015
015
015
015
015
015
015
015
015
015
015
015
015
015
015
015
015
015
015
015
015
015
015
015
015
015
015
015
015
015
015
015
015
015
015
015
015
015
015
015
015
015
015
015
015
015
015
015
015
015
015
015
015
015
015
015
015
015
015
015
015
015
015
015
015
015
015
015
015
015
015
015
015
015
015
015
015
015
015
015
015
015
015
015
015
015
015
015
015
015
015
015
015
015
015
015
015
015
015
015
015
015
015
015
015
015
015
015
015
015
015
015
015
015
015
015
015
015
015
015
015
015
015
015
015
015
015
015
015
015
015
015
015
015
015
015
015
015
015
015
015
015
015
015
015
015
015
015
015
015
015
015
015
015
015
015
015
015
015
015
015
015
015
015
015
015
015
015
015
015
015
015
015
015
015
015
015
015
015
015
015
015
015
015
015
015
015
015
015
015
015
015
015
015
015
015
015
015
015
015
015
015
015
015
015
015
015
015
015
015
015
015
015
015
015
015
015
015
015
015
015
015
015
015
015
015
015
015
015
015
015
015
015
015
015
015
015
015
015
015
015
015
015
015
015
015
015
015
015
015
015
015
015
015
015
015
015
015
015
015
015
015
015
015
015
015
015
015
015
015
015
015
015
015
015
015
015
015
015
015
015
015
015
015
015
015
015
015
015
015
015
015
015
015
015
015
015
015
015
015
015
015
015
015
015
015
015
015
015
015
015
015
015
015
015
015
015
015
015
015
015
015
015
015
015
015
015
015
015
015
015
015
015
015
015
015
015
015
015
015
015
015
015
015
015
015
015
015
015
015
015
015
015
015
015
015
015
015
015
015
015
015
015
015
015
015
015
015
015
015
015
015
015
015
015
015
015
015
015
015
015
015
015
015
015
015
015
015
015
015
015
015
015
015
015
015
015
015
015
015
015
015
015
015
015
015
015
015
015
015
015
015
015
015
015
015
015
015
015
015
015
015
015
015
015
015
015
015
015
015
015
015
015
015
015
015
015
015
015
015
015
015
015
015
015
015
015
015
015
015
015
015
015
015
015
015
015
015
015
015
015
015
015
015
015
015
015
015
015
015
015
015
015
015
015
015
015
015
015
015
015
015
015
015
015
015
015
015
015
015
015
015
015
015
015
015
015
015
015
015
015
015
015
015
015
015
015
015
015
015
015
015
015
015
015
015
015
015
015
015
015
015
015
015
015
015
015
015
015
015
015
015
015
015
015
015
015
015
015
015
015
015
015
015
015
015
015
015
015
015
015
015
015
015
015
015
015
015
015
015
015
015
015
015
015
015
015
015
015
015
015
015
015
015
015
015
015
015
015
015
015
015
015
015
015
015
015
015
015
015
015
015
015
015
015
015
015
015
015
015
015
015
015
015
015
015
015
015
015
015
015
015
015
015
015
015
015
015
015
015
015
015
015
015
015
015
015
015
015
015
015
015
015
015
015
015
015
015
015
015
015
015
015
015
015
015
015
015
015
015
015
015
015
015
015
015
015
015
015
015
015
015
015
015
015
015
015
015
015
015
015
015
015
015
015
015
015
015
015
015
015
015
015
015
015
015
015
015
015
015
015
015
015
015
015
015
015
015
015
015
015
015
015
015
015
015
015
015
015
015
015
015
015
015
015
015
015
015
015
015
015
015
015
015
015
015
015
015
015
015
015
015
015
015
015
015
015
015
015
015
015
015
015
015
015
015
015
015
015
015
015
015
015
015
015
015
015
015
015
015
015
015
015
015
015
015
015
015
015
015
015
015
015
015
015
015
015
015
015
015
015
015
015
015
015
015
015
015
015
015
015
015
015
015
015
015
015
015
015
015
015
015
015
015
015
015
015
015
015
015
015
015
015
015
015
014
014
014
014
014
014
014
014
014
014
014
014
014
014
014
014
014
014
014
014
014
014
014
014
014
014
014
014
014
014
014
014
014
014
014
014
014
014
014
014
014
014
014
014
014
014
014
014
014
014
014
014
014
014
014
014
014
014
014
014
014
014
014
014
014
014
014
014
014
014
014
014
014
014
014
014
014
014
014
014
014
014
014
014
014
014
014
014
014
014
014
014
014
014
014
014
014
014
014
014
014
014
014
014
014
014
014
014
014
014
014
014
014
014
014
014
014
014
014
014
014
014
014
014
014
014
014
014
014
014
014
014
014
014
014
014
014
014
014
014
014
014
014
014
014
014
014
014
014
014
014
014
014
014
014
014
014
014
014
014
014
014
014
014
014
014
014
014
014
014
014
014
014
014
014
014
014
014
014
014
014
014
014
014
014
014
014
014
014
014
014
014
014
014
014
014
014
014
014
014
014
014
014
014
014
014
014
014
014
014
014
014
014
014
014
014
014
014
014
014
014
014
014
014
014
014
014
014
014
014
014
014
014
014
014
014
014
014
014
014
014
014
014
014
014
014
014
014
014
014
014
014
014
014
014
014
014
014
014
014
014
014
014
014
014
014
014
014
014
014
014
014
014
014
014
014
014
014
014
014
014
014
014
014
014
014
014
014
014
014
014
014
014
014
014
014
014
014
014
014
014
014
014
014
014
014
014
014
014
014
014
014
014
014
014
014
014
014
014
014
014
014
014
014
014
014
014
014
014
014
014
014
014
014
014
014
014
014
014
014
014
014
014
014
014
014
014
014
014
014
014
014
014
014
014
014
014
014
014
014
014
014
014
014
014
014
014
014
014
014
014
014
014
014
014
014
014
014
014
014
014
014
014
014
014
014
014
014
014
014
014
014
014
014
014
014
014
014
014
014
014
014
014
014
014
014
014
014
014
014
014
014
014
014
014
014
014
014
014
014
014
014
014
014
014
014
014
014
014
014
014
014
014
014
014
014
014
014
014
014
014
014
014
014
014
014
014
014
014
014
014
014
014
014
014
014
014
014
014
014
014
014
014
014
014
014
014
014
014
014
014
014
014
014
014
014
014
014
014
014
014
014
014
014
014
014
014
014
014
014
014
014
014
014
014
014
014
014
014
014
014
014
014
014
014
014
014
014
014
014
014
014
014
014
014
014
014
014
014
014
014
014
014
014
014
014
014
014
014
014
014
014
014
014
014
014
014
014
014
014
014
014
014
014
014
014
014
014
014
014
014
014
014
014
014
014
014
014
014
014
014
014
014
014
014
014
014
014
014
014
014
014
014
014
014
014
014
014
014
014
014
014
014
014
014
014
014
014
014
014
014
014
014
014
014
014
014
014
014
014
014
014
014
014
014
014
014
014
014
014
014
014
014
014
014
014
014
014
014
014
014
014
014
014
014
014
014
014
014
014
014
014
014
014
014
014
014
014
014
014
014
014
014
014
014
014
014
014
014
014
014
014
014
014
014
014
014
014
014
014
014
014
014
014
014
014
014
014
014
014
014
014
014
014
014
014
014
014
014
014
014
014
014
014
014
014
014
014
014
014
014
014
014
014
014
014
014
014
014
014
014
014
014
014
014
014
014
014
014
014
014
014
014
014
014
014
014
014
014
014
014
014
014
014
014
014
014
014
014
014
014
014
014
014
014
014
014
014
014
014
014
014
014
014
014
014
014
014
014
014
014
014
014
014
014
014
014
014
014
014
014
014
014
014
014
014
014
014
014
014
014
014
014
014
014
014
014
014
014
014
014
014
014
014
014
014
014
014
014
014
014
014
014
014
014
014
014
014
014
014
014
014
014
014
014
014
014
014
014
014
014
014
014
014
014
014
014
014
014
014
014
014
014
014
014
014
014
014
014
014
014
014
014
014
014
014
014
014
014
014
014
014
014
014
014
014
014
014
014
014
014
014
014
014
014
014
014
014
014
014
014
014
014
014
014
014
014
014
014
014
014
014
014
014
014
014
014
014
014
014
014
014
014
014
014
014
014
014
014
014
014
014
014
014
014
014
014
014
014
014
014
014
014
014
014
014
014
014
014
014
014
014
014
014
014
014
014
014
014
014
014
014
014
014
014
014
014
014
014
014
014
014
014
014
014
014
014
014
014
014
014
014
014
014
014
014
014
014
014
014
014
014
014
014
014
014
014
014
014
014
014
014
014
014
014
014
014
014
014
014
014
014
014
014
014
013
013
013
013
013
013
013
013
013
013
013
013
013
013
013
013
013
013
013
013
013
013
013
013
013
013
013
013
013
013
013
013
013
013
013
013
013
013
013
013
013
013
013
013
013
013
013
013
013
013
013
013
013
013
013
013
013
013
013
013
013
013
013
013
013
013
013
013
013
013
013
013
013
013
013
013
013
013
013
013
013
013
013
013
013
013
013
013
013
013
013
013
013
013
013
013
013
013
013
013
013
013
013
013
013
013
013
013
013
013
013
013
013
013
013
013
013
013
013
013
013
013
013
013
013
013
013
013
013
013
013
013
013
013
013
013
013
013
013
013
013
013
013
013
013
013
013
013
013
013
013
013
013
013
013
013
013
013
013
013
013
013
013
013
013
013
013
013
013
013
013
013
013
013
013
013
013
013
013
013
013
013
013
013
013
013
013
013
013
013
013
013
013
013
013
013
013
013
013
013
013
013
013
013
013
013
013
013
013
013
013
013
013
013
013
013
013
013
013
013
013
013
013
013
013
013
013
013
013
013
013
013
013
013
013
013
013
013
013
013
013
013
013
013
013
013
013
013
013
013
013
013
013
013
013
013
013
013
013
013
013
013
013
013
013
013
013
013
013
013
013
013
013
013
013
013
013
013
013
013
013
013
013
013
013
013
013
013
013
013
013
013
013
013
013
013
013
013
013
013
013
013
013
013
013
013
013
013
013
013
013
013
013
013
013
013
013
013
013
013
013
013
013
013
013
013
013
013
013
013
013
013
013
013
013
013
013
013
013
013
013
013
013
013
013
013
013
013
013
013
013
013
013
013
013
013
013
013
013
013
013
013
013
013
013
013
013
013
013
013
013
013
013
013
013
013
013
013
013
013
013
013
013
013
013
013
013
013
013
013
013
013
013
013
013
013
013
013
013
013
013
013
013
013
013
013
013
013
013
013
013
013
013
013
013
013
013
013
013
013
013
013
013
013
013
013
013
013
013
013
013
013
013
013
013
013
013
013
013
013
013
013
013
013
013
013
013
013
013
013
013
013
013
013
013
013
013
013
013
013
013
013
013
013
013
013
013
013
013
013
013
013
013
013
013
013
013
013
013
013
013
013
013
013
013
013
013
013
013
013
013
013
013
013
013
013
013
013
013
013
013
013
013
013
013
013
013
013
013
013
013
013
013
013
013
013
013
013
013
013
013
013
013
013
013
013
013
013
013
013
013
013
013
013
013
013
013
013
013
013
013
013
013
013
013
013
013
013
013
013
013
013
013
013
013
013
013
013
013
013
013
013
013
013
013
013
013
013
013
013
013
013
013
013
013
013
013
013
013
013
013
013
013
013
013
013
013
013
013
013
013
013
013
013
013
013
013
013
013
013
013
013
013
013
013
013
013
013
013
013
013
013
013
013
013
013
013
013
013
013
013
013
013
013
013
013
013
013
013
013
013
013
013
013
013
013
013
013
013
013
013
013
013
013
013
013
013
013
013
013
013
013
013
013
013
013
013
013
013
013
013
013
013
013
013
013
013
013
013
013
013
013
013
013
013
013
013
013
013
013
013
013
013
013
013
013
013
013
013
013
013
013
013
013
013
013
013
013
013
013
013
013
013
013
013
013
013
013
013
013
013
013
013
013
013
013
013
013
013
013
013
013
013
013
013
013
013
013
013
013
013
013
013
013
013
013
013
013
013
013
013
013
013
013
013
013
013
013
013
013
013
013
013
013
013
013
013
013
013
013
013
013
013
013
013
013
013
013
013
013
013
013
013
013
013
013
013
013
013
013
013
013
013
013
013
013
013
013
013
013
013
013
013
013
013
013
013
013
013
013
013
013
013
013
013
013
013
013
013
013
013
013
013
013
013
013
013
013
013
013
013
013
013
013
013
013
013
013
013
013
013
013
013
013
013
013
013
013
013
013
013
013
013
013
013
013
013
013
013
013
013
013
013
013
013
013
013
013
013
013
013
013
013
013
013
013
013
013
013
013
013
013
013
013
013
013
013
013
013
013
013
013
013
013
013
013
013
013
013
013
013
013
013
013
013
013
013
013
013
013
013
013
013
013
013
013
013
013
013
013
013
013
013
013
013
013
013
013
013
013
013
013
013
013
013
013
013
013
013
013
013
013
013
013
013
013
013
013
013
013
013
013
013
013
013
013
013
013
013
013
013
013
013
013
013
013
013
013
013
013
013
013
013
013
013
013
013
013
013
013
013
013
013
013
013
013
013
013
013
013
013
013
013
013
013
013
013
013
013
013
013
013
013
013
013
013
013
013
013
013
013
013
013
013
013
013
013
013
013
013
013
013
013
013
013
013
013
013
013
013
013
013
013
013
013
013
013
013
013
013
013
013
013
013
013
013
013
013
013
013
013
013
013
013
013
013
013
013
013
013
013
013
013
013
013
013
013
013
013
013
013
013
013
013
013
013
013
013
013
013
013
013
013
013
013
013
013
013
013
013
013
013
013
013
013
013
013
013
013
013
013
013
013
013
013
013
013
013
013
013
013
013
013
013
013
013
013
013
013
013
013
013
013
013
013
013
013
013
013
013
013
013
013
013
013
013
013
013
013
013
013
013
013
012
012
012
012
012
012
012
012
012
012
012
012
012
012
012
012
012
012
012
012
012
012
012
012
012
012
012
012
012
012
012
012
012
012
012
012
012
012
012
012
012
012
012
012
012
012
012
012
012
012
012
012
012
012
012
012
012
012
012
012
012
012
012
012
012
012
012
012
012
012
012
012
012
012
012
012
012
012
012
012
012
012
012
012
012
012
012
012
012
012
012
012
012
012
012
012
012
012
012
012
012
012
012
012
012
012
012
012
012
012
012
012
012
012
012
012
012
012
012
012
012
012
012
012
012
012
012
012
012
012
012
012
012
012
012
012
012
012
012
012
012
012
012
012
012
012
012
012
012
012
012
012
012
012
012
012
012
012
012
012
012
012
012
012
012
012
012
012
012
012
012
012
012
012
012
012
012
012
012
012
012
012
012
012
012
012
012
012
012
012
012
012
012
012
012
012
012
012
012
012
012
012
012
012
012
012
012
012
012
012
012
012
012
012
012
012
012
012
012
012
012
012
012
012
012
012
012
012
012
012
012
012
012
012
012
012
012
012
012
012
012
012
012
012
012
012
012
012
012
012
012
012
012
012
012
012
012
012
012
012
012
012
012
012
012
012
012
012
012
012
012
012
012
012
012
012
012
012
012
012
012
012
012
012
012
012
012
012
012
012
012
012
012
012
012
012
012
012
012
012
012
012
012
012
012
012
012
012
012
012
012
012
012
012
012
012
012
012
012
012
012
012
012
012
012
012
012
012
012
012
012
012
012
012
012
012
012
012
012
012
012
012
012
012
012
012
012
012
012
012
012
012
012
012
012
012
012
012
012
012
012
012
012
012
012
012
012
012
012
012
012
012
012
012
012
012
012
012
012
012
012
012
012
012
012
012
012
012
012
012
012
012
012
012
012
012
012
012
012
012
012
012
012
012
012
012
012
012
012
012
012
012
012
012
012
012
012
012
012
012
012
012
012
012
012
012
012
012
012
012
012
012
012
012
012
012
012
012
012
012
012
012
012
012
012
012
012
012
012
012
012
012
012
012
012
012
012
012
012
012
012
012
012
012
012
012
012
012
012
012
012
012
012
012
012
012
012
012
012
012
012
012
012
012
012
012
012
012
012
012
012
012
012
012
012
012
012
012
012
012
012
012
012
012
012
012
012
012
012
012
012
012
012
012
012
012
012
012
012
012
012
012
012
012
012
012
012
012
012
012
012
012
012
012
012
012
012
012
012
012
012
012
012
012
012
012
012
012
012
012
012
012
012
012
012
012
012
012
012
012
012
012
012
012
012
012
012
012
012
012
012
012
012
012
012
012
012
012
012
012
012
012
012
012
012
012
012
012
012
012
012
012
012
012
012
012
012
012
012
012
012
012
012
012
012
012
012
012
012
012
012
012
012
012
012
012
012
012
012
012
012
012
012
012
012
012
012
012
012
012
012
012
012
012
012
012
012
012
012
012
012
012
012
012
012
012
012
012
012
012
012
012
012
012
012
012
012
012
012
012
012
012
012
012
012
012
012
012
012
012
012
012
012
012
012
012
012
012
012
012
012
012
012
012
012
012
012
012
012
012
012
012
012
012
012
012
012
012
012
012
012
012
012
012
012
012
012
012
012
012
012
012
012
012
012
012
012
012
012
012
012
012
012
012
012
012
012
012
012
012
012
012
012
012
012
012
012
012
012
012
012
012
012
012
012
012
012
012
012
012
012
012
012
012
012
012
012
012
012
012
012
012
012
012
012
012
012
012
012
012
012
012
012
012
012
012
012
012
012
012
012
012
012
012
012
012
012
012
012
012
012
012
012
012
012
012
012
012
012
012
012
012
012
012
012
012
012
012
012
012
012
012
012
012
012
012
012
012
012
012
012
012
012
012
012
012
012
012
012
012
012
012
012
012
012
012
012
012
012
012
012
012
012
012
012
012
012
012
012
012
012
012
012
012
012
012
012
012
012
012
012
012
012
012
012
012
012
012
012
012
012
012
012
012
012
012
012
012
012
012
012
012
012
012
012
012
012
012
012
012
012
012
012
012
012
012
012
012
012
012
012
012
012
012
012
012
012
012
012
012
012
012
012
012
012
012
012
012
012
012
012
012
012
012
012
012
012
012
012
012
012
012
012
012
012
012
012
012
012
012
012
012
012
012
012
012
012
012
012
012
012
012
012
012
012
012
012
012
012
012
012
012
012
012
012
012
012
012
012
012
012
012
012
012
012
012
012
012
012
012
012
012
012
012
012
012
012
012
012
012
012
012
012
012
012
012
012
012
012
012
012
012
012
012
012
012
012
012
012
012
012
012
012
012
012
012
012
012
012
012
012
012
012
012
012
012
012
012
012
012
012
012
012
012
012
012
012
012
012
012
012
012
012
012
012
012
012
012
012
012
012
012
012
012
012
012
012
012
012
012
012
012
012
012
012
012
012
012
012
012
012
012
012
012
012
012
012
012
012
012
012
012
012
012
012
012
012
012
012
012
012
012
012
012
012
012
012
012
012
012
012
012
012
012
012
012
012
012
012
012
012
012
012
012
012
012
012
012
012
012
012
012
012
012
012
012
012
012
012
012
012
012
012
012
012
012
012
012
012
012
012
012
012
012
012
012
012
012
012
012
012
012
012
012
012
012
012
012
012
012
012
012
012
012
012
012
012
012
012
012
012
012
012
012
012
012
012
012
012
012
012
012
012
012
012
012
012
012
012
012
012
012
012
012
012
012
012
012
012
012
012
012
012
012
012
012
012
012
012
012
012
012
012
012
012
012
012
012
012
012
012
012
012
012
012
012
012
012
012
012
012
012
012
012
012
012
012
012
012
012
012
012
012
012
012
012
012
012
012
012
012
012
012
012
012
012
012
012
012
012
012
012
012
012
012
012
012
012
012
012
012
012
012
012
012
012
012
012
012
012
012
012
012
012
012
012
012
012
012
012
012
012
012
012
012
012
012
012
012
012
012
012
012
012
012
012
012
012
012
012
012
012
012
012
012
012
012
012
012
012
012
012
012
012
012
012
012
011
011
011
011
011
011
011
011
011
011
011
011
011
011
011
011
011
011
011
011
011
011
011
011
011
011
011
011
011
011
011
011
011
011
011
011
011
011
011
011
011
011
011
011
011
011
011
011
011
011
011
011
011
011
011
011
011
011
011
011
011
011
011
011
011
011
011
011
011
011
011
011
011
011
011
011
011
011
011
011
011
011
011
011
011
011
011
011
011
011
011
011
011
011
011
011
011
011
011
011
011
011
011
011
011
011
011
011
011
011
011
011
011
011
011
011
011
011
011
011
011
011
011
011
011
011
011
011
011
011
011
011
011
011
011
011
011
011
011
011
011
011
011
011
011
011
011
011
011
011
011
011
011
011
011
011
011
011
011
011
011
011
011
011
011
011
011
011
011
011
011
011
011
011
011
011
011
011
011
011
011
011
011
011
011
011
011
011
011
011
011
011
011
011
011
011
011
011
011
011
011
011
011
011
011
011
011
011
011
011
011
011
011
011
011
011
011
011
011
011
011
011
011
011
011
011
011
011
011
011
011
011
011
011
011
011
011
011
011
011
011
011
011
011
011
011
011
011
011
011
011
011
011
011
011
011
011
011
011
011
011
011
011
011
011
011
011
011
011
011
011
011
011
011
011
011
011
011
011
011
011
011
011
011
011
011
011
011
011
011
011
011
011
011
011
011
011
011
011
011
011
011
011
011
011
011
011
011
011
011
011
011
011
011
011
011
011
011
011
011
011
011
011
011
011
011
011
011
011
011
011
011
011
011
011
011
011
011
011
011
011
011
011
011
011
011
011
011
011
011
011
011
011
011
011
011
011
011
011
011
011
011
011
011
011
011
011
011
011
011
011
011
011
011
011
011
011
011
011
011
011
011
011
011
011
011
011
011
011
011
011
011
011
011
011
011
011
011
011
011
011
011
011
011
011
011
011
011
011
011
011
011
011
011
011
011
011
011
011
011
011
011
011
011
011
011
011
011
011
011
011
011
011
011
011
011
011
011
011
011
011
011
011
011
011
011
011
011
011
011
011
011
011
011
011
011
011
011
011
011
011
011
011
011
011
011
011
011
011
011
011
011
011
011
011
011
011
011
011
011
011
011
011
011
011
011
011
011
011
011
011
011
011
011
011
011
011
011
011
011
011
011
011
011
011
011
011
011
011
011
011
011
011
011
011
011
011
011
011
011
011
011
011
011
011
011
011
011
011
011
011
011
011
011
011
011
011
011
011
011
011
011
011
011
011
011
011
011
011
011
011
011
011
011
011
011
011
011
011
011
011
011
011
011
011
011
011
011
011
011
011
011
011
011
011
011
011
011
011
011
011
011
011
011
011
011
011
011
011
011
011
011
011
011
011
011
011
011
011
011
011
011
011
011
011
011
011
011
011
011
011
011
011
011
011
011
011
011
011
011
011
011
011
011
011
011
011
011
011
011
011
011
011
011
011
011
011
011
011
011
011
011
011
011
011
011
011
011
011
011
011
011
011
011
011
011
011
011
011
011
011
011
011
011
011
011
011
011
011
011
011
011
011
011
011
011
011
011
011
011
011
011
011
011
011
011
011
011
011
011
011
011
011
011
011
011
011
011
011
011
011
011
011
011
011
011
011
011
011
011
011
011
011
011
011
011
011
011
011
011
011
011
011
011
011
011
011
011
011
011
011
011
011
011
011
011
011
011
011
011
011
011
011
011
011
011
011
011
011
011
011
011
011
011
011
011
011
011
011
011
011
011
011
011
011
011
011
011
011
011
011
011
011
011
011
011
011
011
011
011
011
011
011
011
011
011
011
011
011
011
011
011
011
011
011
011
011
011
011
011
011
011
011
011
011
011
011
011
011
011
011
011
011
011
011
011
011
011
011
011
011
011
011
011
011
011
011
011
011
011
011
011
011
011
011
011
011
011
011
011
011
011
011
011
011
011
011
011
011
011
011
011
011
011
011
011
011
011
011
011
011
011
011
011
011
011
011
011
011
011
011
011
011
011
011
011
011
011
011
011
011
011
011
011
011
011
011
011
011
011
011
011
011
011
011
011
011
011
011
011
011
011
011
011
011
011
011
011
011
011
011
011
011
011
011
011
011
011
011
011
011
011
011
011
011
011
011
011
011
011
011
011
011
011
011
011
011
011
011
011
011
011
011
011
011
011
011
011
011
011
011
011
011
011
011
011
011
011
011
011
011
011
011
011
011
011
011
011
011
011
011
011
011
011
011
011
011
011
011
011
011
011
011
011
011
011
011
011
011
011
011
011
011
011
011
011
011
011
011
011
011
011
011
011
011
011
011
011
011
011
011
011
011
011
011
011
011
011
011
011
011
011
011
011
011
011
011
011
011
011
011
011
011
011
011
011
011
011
011
011
011
011
011
011
011
011
011
011
011
011
011
011
011
011
011
011
011
011
011
011
011
011
011
011
011
011
011
011
011
011
011
011
011
011
011
011
011
011
011
011
011
011
011
011
011
011
011
011
011
011
011
011
011
011
011
011
011
011
011
011
011
011
011
011
011
011
011
011
011
011
011
011
011
011
011
011
011
011
011
011
011
011
011
011
011
011
011
011
011
011
011
011
011
011
011
011
011
011
011
011
011
011
011
011
011
011
011
011
011
011
011
011
011
011
011
011
011
011
011
011
011
011
011
011
011
011
011
011
011
011
011
011
011
011
011
011
011
011
011
011
011
011
011
011
011
011
011
011
011
011
011
011
011
011
011
011
011
011
011
011
011
011
011
011
011
011
011
011
011
011
011
011
011
011
011
011
011
011
011
011
011
011
011
011
011
011
011
011
011
011
011
011
011
011
011
011
011
011
011
011
011
011
011
011
011
011
011
011
011
011
011
011
011
011
011
011
011
011
011
011
011
011
011
011
011
011
011
011
011
011
011
011
011
011
011
011
011
011
011
011
011
011
011
011
011
011
011
011
011
011
011
011
011
011
011
011
011
011
011
011
011
011
011
011
011
011
011
011
011
011
011
011
011
011
011
011
011
011
011
011
011
011
011
011
011
011
011
011
011
011
011
011
011
011
011
011
011
011
011
011
011
011
011
011
011
011
011
011
011
011
011
011
011
011
011
011
011
011
011
011
011
011
011
011
011
011
011
011
011
011
011
011
011
011
011
011
011
011
011
011
011
011
011
011
011
011
011
011
011
011
011
011
011
011
011
011
011
011
011
011
011
011
011
011
011
011
011
011
011
011
011
011
011
011
011
011
011
011
011
011
011
011
011
011
011
011
011
011
011
011
011
011
011
011
011
011
011
011
011
011
011
011
011
011
011
011
011
011
011
011
011
011
011
011
011
011
011
011
011
011
011
011
011
011
011
011
011
011
011
011
011
011
011
011
011
011
011
011
011
011
011
011
011
011
011
011
011
011
011
011
011
011
011
011
011
011
011
011
011
011
011
011
011
011
011
011
011
011
011
011
011
011
011
011
011
011
011
011
011
011
011
011
011
011
011
011
011
011
011
011
011
011
011
011
011
011
011
011
011
011
011
011
011
011
011
011
011
011
011
011
011
011
011
011
011
011
011
011
011
011
011
011
011
011
011
011
011
010
010
010
010
010
010
010
010
010
010
010
010
010
010
010
010
010
010
010
010
010
010
010
010
010
010
010
010
010
010
010
010
010
010
010
010
010
010
010
010
010
010
010
010
010
010
010
010
010
010
010
010
010
010
010
010
010
010
010
010
010
010
010
010
010
010
010
010
010
010
010
010
010
010
010
010
010
010
010
010
010
010
010
010
010
010
010
010
010
010
010
010
010
010
010
010
010
010
010
010
010
010
010
010
010
010
010
010
010
010
010
010
010
010
010
010
010
010
010
010
010
010
010
010
010
010
010
010
010
010
010
010
010
010
010
010
010
010
010
010
010
010
010
010
010
010
010
010
010
010
010
010
010
010
010
010
010
010
010
010
010
010
010
010
010
010
010
010
010
010
010
010
010
010
010
010
010
010
010
010
010
010
010
010
010
010
010
010
010
010
010
010
010
010
010
010
010
010
010
010
010
010
010
010
010
010
010
010
010
010
010
010
010
010
010
010
010
010
010
010
010
010
010
010
010
010
010
010
010
010
010
010
010
010
010
010
010
010
010
010
010
010
010
010
010
010
010
010
010
010
010
010
010
010
010
010
010
010
010
010
010
010
010
010
010
010
010
010
010
010
010
010
010
010
010
010
010
010
010
010
010
010
010
010
010
010
010
010
010
010
010
010
010
010
010
010
010
010
010
010
010
010
010
010
010
010
010
010
010
010
010
010
010
010
010
010
010
010
010
010
010
010
010
010
010
010
010
010
010
010
010
010
010
010
010
010
010
010
010
010
010
010
010
010
010
010
010
010
010
010
010
010
010
010
010
010
010
010
010
010
010
010
010
010
010
010
010
010
010
010
010
010
010
010
010
010
010
010
010
010
010
010
010
010
010
010
010
010
010
010
010
010
010
010
010
010
010
010
010
010
010
010
010
010
010
010
010
010
010
010
010
010
010
010
010
010
010
010
010
010
010
010
010
010
010
010
010
010
010
010
010
010
010
010
010
010
010
010
010
010
010
010
010
010
010
010
010
010
010
010
010
010
010
010
010
010
010
010
010
010
010
010
010
010
010
010
010
010
010
010
010
010
010
010
010
010
010
010
010
010
010
010
010
010
010
010
010
010
010
010
010
010
010
010
010
010
010
010
010
010
010
010
010
010
010
010
010
010
010
010
010
010
010
010
010
010
010
010
010
010
010
010
010
010
010
010
010
010
010
010
010
010
010
010
010
010
010
010
010
010
010
010
010
010
010
010
010
010
010
010
010
010
010
010
010
010
010
010
010
010
010
010
010
010
010
010
010
010
010
010
010
010
010
010
010
010
010
010
010
010
010
010
010
010
010
010
010
010
010
010
010
010
010
010
010
010
010
010
010
010
010
010
010
010
010
010
010
010
010
010
010
010
010
010
010
010
010
010
010
010
010
010
010
010
010
010
010
010
010
010
010
010
010
010
010
010
010
010
010
010
010
010
010
010
010
010
010
010
010
010
010
010
010
010
010
010
010
010
010
010
010
010
010
010
010
010
010
010
010
010
010
010
010
010
010
010
010
010
010
010
010
010
010
010
010
010
010
010
010
010
010
010
010
010
010
010
010
010
010
010
010
010
010
010
010
010
010
010
010
010
010
010
010
010
010
010
010
010
010
010
010
010
010
010
010
010
010
010
010
010
010
010
010
010
010
010
010
010
010
010
010
010
010
010
010
010
010
010
010
010
010
010
010
010
010
010
010
010
010
010
010
010
010
010
010
010
010
010
010
010
010
010
010
010
010
010
010
010
010
010
010
010
010
010
010
010
010
010
010
010
010
010
010
010
010
010
010
010
010
010
010
010
010
010
010
010
010
010
010
010
010
010
010
010
010
010
010
010
010
010
010
010
010
010
010
010
010
010
010
010
010
010
010
010
010
010
010
010
010
010
010
010
010
010
010
010
010
010
010
010
010
010
010
010
010
010
010
010
010
010
010
010
010
010
010
010
010
010
010
010
010
010
010
010
010
010
010
010
010
010
010
010
010
010
010
010
010
010
010
010
010
010
010
010
010
010
010
010
010
010
010
010
010
010
010
010
010
010
010
010
010
010
010
010
010
010
010
010
010
010
010
010
010
010
010
010
010
010
010
010
010
010
010
010
010
010
010
010
010
010
010
010
010
010
010
010
010
010
010
010
010
010
010
010
010
010
010
010
010
010
010
010
010
010
010
010
010
010
010
010
010
010
010
010
010
010
010
010
010
010
010
010
010
010
010
010
010
010
010
010
010
010
010
010
010
010
010
010
010
010
010
010
010
010
010
010
010
010
010
010
010
010
010
010
010
010
010
010
010
010
010
010
010
010
010
010
010
010
010
010
010
010
010
010
010
010
010
010
010
010
010
010
010
010
010
010
010
010
010
010
010
010
010
010
010
010
010
010
010
010
010
010
010
010
010
010
010
010
010
010
010
010
010
010
010
010
010
010
010
010
010
010
010
010
010
010
010
010
010
010
010
010
010
010
010
010
010
010
010
010
010
010
010
010
010
010
010
010
010
010
010
010
010
010
010
010
010
010
010
010
010
010
010
010
010
010
010
010
010
010
010
010
010
010
010
010
010
010
010
010
010
010
010
010
010
010
010
010
010
010
010
010
010
010
010
010
010
010
010
010
010
010
010
010
010
010
010
010
010
010
010
010
010
010
010
010
010
010
010
010
010
010
010
010
010
010
010
010
010
010
010
010
010
010
010
010
010
010
010
010
010
010
010
010
010
010
010
010
010
010
010
010
010
010
010
010
010
010
010
010
010
010
010
010
010
010
010
010
010
010
010
010
010
010
010
010
010
010
010
010
010
010
010
010
010
010
010
010
010
010
010
010
010
010
010
010
010
010
010
010
010
010
010
010
010
010
010
010
010
010
010
010
010
010
010
010
010
010
010
010
010
010
010
010
010
010
010
010
010
010
010
010
010
010
010
010
010
010
010
010
010
010
010
010
010
010
010
010
010
010
010
010
010
010
010
010
010
010
010
010
010
010
010
010
010
010
010
010
010
010
010
010
010
010
010
010
010
010
010
010
010
010
010
010
010
010
010
010
010
010
010
010
010
010
010
010
010
010
010
010
010
010
010
010
010
010
010
010
010
010
010
010
010
010
010
010
010
010
010
010
010
010
010
010
010
010
010
010
010
010
010
010
010
010
010
010
010
010
010
010
010
010
010
010
010
010
010
010
010
010
010
010
010
010
010
010
010
010
010
010
010
010
010
010
010
010
010
010
010
010
010
010
010
010
010
010
010
010
010
010
010
010
010
010
010
010
010
010
010
010
010
010
010
010
010
010
010
010
010
010
010
010
010
010
010
010
010
010
010
010
010
010
010
010
010
010
010
010
010
010
010
010
010
010
010
010
010
010
010
010
010
010
010
010
010
010
010
010
010
010
010
010
010
010
010
010
010
010
010
010
010
010
010
010
010
010
010
010
010
010
010
010
010
010
010
010
010
010
010
010
010
010
010
010
010
010
010
010
010
010
010
010
010
010
010
010
010
010
010
010
010
010
010
010
010
010
010
010
010
010
010
010
010
010
010
010
010
010
010
010
010
010
010
010
010
010
010
010
010
010
010
010
010
010
010
010
010
010
010
010
010
010
010
010
010
010
010
010
010
010
010
010
010
010
010
010
010
010
010
010
010
010
010
010
010
010
010
010
010
010
010
010
010
010
010
010
010
010
010
010
010
010
010
010
010
010
010
010
010
010
010
010
010
010
010
010
010
010
010
010
010
010
010
010
010
010
010
010
010
010
010
010
010
010
010
010
010
010
010
010
010
010
010
010
010
010
010
010
010
010
010
010
010
010
010
010
010
010
010
010
010
010
010
010
010
010
010
010
010
010
010
010
010
010
010
010
010
010
010
010
010
010
010
010
010
010
010
010
010
010
010
010
010
010
010
010
010
010
010
010
010
010
010
010
010
010
010
010
010
010
010
010
010
010
010
010
010
010
010
010
010
010
010
010
010
010
010
010
010
010
010
010
010
010
010
010
010
010
010
010
010
010
010
010
010
010
010
010
010
010
010
010
010
010
010
010
010
010
010
010
010
010
010
010
010
010
010
010
010
010
010
010
010
010
010
010
010
010
010
010
010
010
010
010
010
010
010
010
010
010
010
010
010
010
010
010
010
010
010
010
010
010
010
010
010
010
010
010
010
010
010
010
010
010
010
010
010
010
010
010
010
010
010
010
010
010
010
010
010
010
010
010
010
010
010
010
010
010
010
010
010
