000418
00041F
000426
00042E
000435
00043C
000443
00044B
000452
00045A
000461
000469
000471
000478
000480
000488
000490
000498
0004A0
0004A8
0004B0
0004B8
0004C0
0004C8
0004D1
0004D9
0004E1
0004EA
0004F2
0004FB
000504
00050C
000515
00051E
000527
000530
000539
000542
00054B
000554
00055D
000567
000570
000579
000583
00058C
000596
0005A0
0005A9
0005B3
0005BD
0005C7
0005D1
0005DB
0005E5
0005F0
0005FA
000604
00060F
000619
000624
00062F
000639
000644
00064F
00065A
000665
000670
00067B
000686
000692
00069D
0006A9
0006B4
0006C0
0006CB
0006D7
0006E3
0006EF
0006FB
000707
000713
000720
00072C
000738
000745
000752
00075E
00076B
000778
000785
000792
00079F
0007AC
0007BA
0007C7
0007D5
0007E2
0007F0
0007FE
00080B
000819
000827
000836
000844
000852
000861
00086F
00087E
00088D
00089B
0008AA
0008B9
0008C8
0008D8
0008E7
0008F6
000906
000916
000925
000935
000945
000955
000966
000976
000986
000997
0009A7
0009B8
0009C9
0009DA
0009EB
0009FC
000A0E
000A1F
000A31
000A42
000A54
000A66
000A78
000A8A
000A9D
000AAF
000AC1
000AD4
000AE7
000AFA
000B0D
000B20
000B33
000B47
000B5A
000B6E
000B82
000B96
000BAA
000BBE
000BD3
000BE7
000BFC
000C10
000C25
000C3A
000C50
000C65
000C7B
000C90
000CA6
000CBC
000CD2
000CE8
000CFF
000D15
000D2C
000D43
000D5A
000D71
000D88
000DA0
000DB7
000DCF
000DE7
000DFF
000E17
000E30
000E49
000E61
000E7A
000E93
000EAD
000EC6
000EE0
000EFA
000F13
000F2E
000F48
000F62
000F7D
000F98
000FB3
000FCE
000FEA
001005
001021
00103D
001059
001076
001092
0010AF
0010CC
0010E9
001106
001124
001142
001160
00117E
00119C
0011BB
0011D9
0011F8
001217
001237
001256
001276
001296
0012B7
0012D7
0012F8
001319
00133A
00135B
00137D
00139E
0013C0
0013E3
001405
001428
00144B
00146E
001492
0014B5
0014D9
0014FD
001522
001546
00156B
001590
0015B6
0015DB
001601
001628
00164E
001675
00169C
0016C3
0016EA
001712
00173A
001762
00178B
0017B4
0017DD
001806
001830
00185A
001884
0018AF
0018DA
001905
001930
00195C
001988
0019B4
0019E1
001A0D
001A3B
001A68
001A96
001AC4
001AF3
001B21
001B50
001B80
001BAF
001BDF
001C10
001C40
001C71
001CA3
001CD4
001D06
001D39
001D6B
001D9F
001DD2
001E06
001E3A
001E6E
001EA3
001ED8
001F0E
001F43
001F7A
001FB0
001FE7
00201F
002056
00208E
0020C7
002100
002139
002173
0021AD
0021E7
002222
00225D
002299
0022D5
002311
00234E
00238B
0023C9
002407
002445
002484
0024C4
002503
002544
002584
0025C5
002607
002649
00268B
0026CE
002711
002755
002799
0027DE
002823
002869
0028AF
0028F5
00293C
002984
0029CC
002A14
002A5D
002AA7
002AF1
002B3B
002B86
002BD2
002C1E
002C6A
002CB7
002D05
002D53
002DA2
002DF1
002E41
002E91
002EE2
002F33
002F85
002FD7
00302A
00307E
0030D2
003127
00317C
0031D2
003228
00327F
0032D7
00332F
003388
0033E1
00343B
003496
0034F1
00354D
0035A9
003606
003664
0036C2
003721
003781
0037E1
003842
0038A4
003906
003969
0039CC
003A31
003A95
003AFB
003B61
003BC8
003C30
003C98
003D02
003D6B
003DD6
003E41
003EAD
003F1A
003F87
003FF6
004064
0040D4
004145
0041B6
004228
00429B
00430E
004382
0043F7
00446D
0044E4
00455C
0045D4
00464D
0046C7
004742
0047BD
00483A
0048B7
004935
0049B4
004A34
004AB5
004B36
004BB9
004C3C
004CC0
004D45
004DCB
004E52
004EDA
004F63
004FED
005077
005103
00518F
00521D
0052AB
00533B
0053CB
00545C
0054EF
005582
005616
0056AC
005742
0057D9
005872
00590B
0059A6
005A41
005ADE
005B7B
005C1A
005CBA
005D5A
005DFC
005E9F
005F44
005FE9
00608F
006137
0061DF
006289
006334
0063E0
00648D
00653C
0065EB
00669C
00674E
006801
0068B6
00696B
006A22
006ADA
006B93
006C4E
006D0A
006DC7
006E85
006F45
007006
0070C8
00718C
007251
007317
0073DF
0074A8
007572
00763E
00770B
0077DA
0078A9
00797B
007A4D
007B22
007BF7
007CCE
007DA7
007E81
007F5C
008039
008117
0081F7
0082D9
0083BC
0084A0
008586
00866E
008757
008842
00892E
008A1C
008B0C
008BFD
008CEF
008DE4
008EDA
008FD2
0090CB
0091C6
0092C3
0093C2
0094C2
0095C4
0096C8
0097CD
0098D5
0099DE
009AE9
009BF5
009D04
009E14
009F26
00A03B
00A150
00A268
00A382
00A49E
00A5BB
00A6DB
00A7FC
00A91F
00AA45
00AB6C
00AC95
00ADC1
00AEEE
00B01D
00B14F
00B282
00B3B8
00B4F0
00B62A
00B766
00B8A4
00B9E4
00BB26
00BC6B
00BDB2
00BEFB
00C046
00C194
00C2E3
00C435
00C58A
00C6E0
00C839
00C995
00CAF2
00CC52
00CDB5
00CF19
00D081
00D1EA
00D356
00D4C5
00D636
00D7AA
00D920
00DA98
00DC13
00DD91
00DF11
00E094
00E21A
00E3A2
00E52D
00E6BA
00E84B
00E9DD
00EB73
00ED0C
00EEA7
00F045
00F1E5
00F389
00F52F
00F6D9
00F885
00FA34
00FBE6
00FD9B
00FF53
01010D
0102CB
01048C
010650
010817
0109E1
010BAE
010D7F
010F52
011129
011302
0114DF
0116C0
0118A3
011A8A
011C74
011E61
012052
012246
01243E
012639
012837
012A39
012C3E
012E47
013053
013263
013476
01368D
0138A8
013AC6
013CE8
013F0E
014137
014364
014595
0147CA
014A03
014C3F
014E7F
0150C4
01530C
015558
0157A8
0159FC
015C54
015EB0
016110
016375
0165DD
01684A
016ABB
016D30
016FAA
017227
0174A9
017730
0179BA
017C4A
017EDD
018175
018412
0186B3
018959
018C03
018EB2
019165
01941D
0196DA
01999C
019C63
019F2E
01A1FE
01A4D3
01A7AD
01AA8C
01AD70
01B058
01B346
01B639
01B931
01BC2F
01BF31
01C239
01C546
01C858
01CB6F
01CE8C
01D1AF
01D4D6
01D803
01DB36
01DE6E
01E1AC
01E4F0
01E839
01EB88
01EEDC
01F237
01F597
01F8FD
01FC69
01FFDA
020352
0206D0
020A54
020DDE
02116E
021504
0218A1
021C44
021FED
02239C
022752
022B0E
022ED1
02329A
02366A
023A41
023E1E
024201
0245EC
0249DD
024DD5
0251D5
0255DB
0259E7
025DFB
026217
026639
026A62
026E93
0272CB
02770A
027B50
027F9E
0283F4
028851
028CB5
029121
029595
029A10
029E94
02A31F
02A7B2
02AC4D
02B0F0
02B59B
02BA4E
02BF09
02C3CC
02C898
02CD6C
02D248
02D72D
02DC1A
02E110
02E60F
02EB16
02F026
02F53E
02FA60
02FF8A
0304BD
0309F9
030F3F
03148D
0319E5
031F46
0324B0
032A24
032FA1
033528
033AB8
034052
0345F6
034BA3
03515B
03571C
035CE7
0362BC
03689C
036E85
037479
037A77
038080
038693
038CB0
0392D8
03990B
039F48
03A591
03ABE4
03B242
03B8AC
03BF20
03C5A0
03CC2A
03D2C1
03D962
03E00F
03E6C8
03ED8D
03F45D
03FB39
040220
040914
041014
041720
041E38
04255D
042C8E
0433CB
043B15
04426C
0449CF
04513F
0458BC
046046
0467DD
046F82
047733
047EF2
0486BE
048E98
049680
049E75
04A678
04AE89
04B6A7
04BED4
04C710
04CF59
04D7B1
04E017
04E88C
04F10F
04F9A1
050242
050AF3
0513B2
051C80
05255E
052E4B
053747
054053
05496F
05529A
055BD6
056521
056E7D
0577E8
058165
058AF1
05948E
059E3C
05A7FB
05B1CA
05BBAB
05C59C
05CF9F
05D9B4
05E3D9
05EE11
05F85A
0602B4
060D21
0617A0
062231
062CD5
06378B
064253
064D2E
06581C
06631D
066E31
067959
068493
068FE1
069B43
06A6B9
06B242
06BDDF
06C991
06D557
06E131
06ED1F
06F923
07053B
071168
071DAB
072A02
07366F
0742F2
074F8A
075C38
0768FD
0775D7
0782C7
078FCE
079CEC
07AA20
07B76C
07C4CE
07D248
07DFD8
07ED81
07FB41
080919
081709
082511
083332
08416B
084FBC
085E27
086CAA
087B47
0889FD
0898CD
08A7B6
08B6B9
08C5D6
08D50D
08E45F
08F3CB
090352
0912F4
0922B1
09328A
09427E
09528D
0962B9
097300
098364
0993E4
09A481
09B53A
09C611
09D705
09E816
09F945
0A0A91
0A1BFC
0A2D85
0A3F2C
0A50F2
0A62D6
0A74DA
0A86FD
0A993F
0AABA1
0ABE23
0AD0C6
0AE388
0AF66B
0B096E
0B1C93
0B2FD9
0B4340
0B56C9
0B6A74
0B7E41
0B9230
0BA642
0BBA77
0BCECF
0BE34A
0BF7E8
0C0CAA
0C2191
0C369B
0C4BCA
0C611E
0C7697
0C8C35
0CA1F8
0CB7E1
0CCDF1
0CE426
0CFA82
0D1105
0D27AF
0D3E80
0D5579
0D6C99
0D83E2
0D9B53
0DB2ED
0DCAB0
0DE29C
0DFAB1
0E12F0
0E2B59
0E43ED
0E5CAB
0E7594
0E8EA8
0EA7E8
0EC154
0EDAEC
0EF4B0
0F0EA0
0F28BE
0F4309
0F5D82
0F7828
0F92FD
0FAE01
0FC933
0FE494
100025
