0000000
5A8279B
4000000
34417AC
2D413CD
287A26B
24F34E9
22359DB
2000000
1E2B7DF
1C9F25B
1B4A293
1A20BD6
191A556
183091F
175E973
16A09E6
15F3AA7
1555555
14C3ABE
143D135
13C0365
134BF63
12DF60C
1279A74
121A185
11C01AA
116B28F
111ACED
10CEA62
1086549
10418A4
1000000
0FC1763
0F85B42
0F4C867
0F15BEF
0EE133D
0EAEBF4
0E7E3ED
0E4F92D
0E229EB
0DF7482
0DCD76D
0DA5149
0D7E0CF
0D584CC
0D33C2C
0D105EB
0CEE115
0CCCCCC
0CAC83F
0C8D2AB
0C6EB59
0C511A3
0C344E6
0C1848F
0BFD011
0BE26EB
0BC889F
0BAF4B9
0B96ACE
0B7EA73
0B67349
0B504F3
0B39F19
0B24169
0B0EB95
0AF9D53
0AE565B
0AD166B
0ABDD45
0AAAAAA
0A97E62
0A85834
0A737EF
0A61D5F
0A50854
0A3F8A2
0A2EE1D
0A1E89A
0A0E7F4
09FEC03
09EF4A3
09E01B2
09D130E
09C2896
09B422B
09A5FB1
099810B
098A61E
097CECF
096FB06
0962AA9
0955DA1
09493D9
093CD3A
09309AF
0924924
0918B86
090D0C2
09018C6
08F6380
08EB0E0
08E00D5
08D534F
08CA83F
08BFF97
08B5947
08AB543
08A137D
08973E7
088D676
0883B1E
087A1D2
0870A87
0867531
085E1C7
085503E
084C08A
08432A4
083A682
0831C19
0829361
0820C52
08186E2
081030A
08080C1
0800000
07F80BF
07F02F6
07E869E
07E0BB1
07D9228
07D19FD
07CA326
07C2DA1
07BB965
07B466E
07AD4B4
07A6433
079F4E5
07986C5
07919CC
078ADF7
0784340
077D9A2
0777118
077099E
076A330
0763DC7
075D962
07575FA
075138D
074B214
074518E
073F1F6
0739348
0733581
072D89C
0727C96
072216D
071C71C
0716DA0
07114F5
070BD1B
070660A
0700FC3
06FBA41
06F6581
06F1182
06EBE3F
06E6BB6
06E19E5
06DC8C9
06D785F
06D28A4
06CD997
06C8B35
06C3D7B
06BF067
06BA3F6
06B5828
06B0CF9
06AC266
06A786F
06A2F10
069E649
0699E16
0695676
0690F67
068C8E8
06882F5
0683D8E
067F8B0
067B45B
067708A
0672D3F
066EA76
066A82E
0666666
066251B
065E44D
065A3FA
065641F
06524BD
064E5D0
064A759
0646955
0642BC3
063EEA2
063B1F0
06375AC
06339D6
062FE6B
062C369
06288D1
0624EA1
06214D7
061DB73
061A273
06169D6
061319B
060F9C1
060C247
0608B2C
060546E
0601E0E
05FE808
05FB25E
05F7D0D
05F4816
05F1375
05EDF2C
05EAB38
05E779A
05E444F
05E1158
05DDEB3
05DAC60
05D7A5C
05D48AA
05D1745
05CE62F
05CB567
05C84EA
05C54BA
05C24D5
05BF539
05BC5E8
05B96DF
05B681E
05B39A4
05B0B71
05ADD84
05AAFDC
05A8279
05A555A
05A287E
059FBE4
059CF8C
059A376
05977A0
0594C0A
05920B4
058F59D
058CAC4
058A029
05875CA
0584BA9
05821C3
057F819
057CEA9
057A574
0577C79
05753B7
0572B2D
05702DC
056DAC3
056B2E1
0568B35
05663C1
0563C81
0561577
055EEA2
055C802
055A195
0557B5B
0555555
0552F81
05509DF
054E46F
054BF31
0549A23
0547545
0545098
0542C1A
05407CB
053E3AC
053BFBB
0539BF7
0537862
05354F9
05331BE
0530EAF
052EBCD
052C916
052A68A
052842A
05261F4
0523FE9
0521E08
051FC51
051DAC3
051B95E
0519822
051770E
0515622
051355F
05114C2
050F44D
050D3FF
050B3D7
05093D5
05073FA
0505444
05034B3
0501548
04FF601
04FD6DF
04FB7E1
04F9908
04F7A51
04F5BBF
04F3D4F
04F1F03
04F00D9
04EE2D1
04EC4EC
04EA728
04E8987
04E6C06
04E4EA7
04E3168
04E144B
04DF74D
04DDA70
04DBDB3
04DA115
04D8498
04D6839
04D4BF9
04D2FD8
04D13D6
04CF7F3
04CDC2D
04CC085
04CA4FC
04C898F
04C6E40
04C530F
04C37FA
04C1D02
04C0227
04BE767
04BCCC4
04BB23E
04B97D2
04B7D83
04B634E
04B4935
04B2F37
04B1554
04AFB8C
04AE1DE
04AC84A
04AAED0
04A9571
04A7C2B
04A62FF
04A49EC
04A30F3
04A1812
049FF4B
049E69D
049CE07
049B589
0499D24
04984D7
0496CA2
0495485
0493C80
0492492
0490CBB
048F4FC
048DD54
048C5C3
048AE48
04896E5
0487F98
0486861
0485140
0483A36
0482341
0480C63
047F59A
047DEE6
047C848
047B1C0
0479B4C
04784EE
0476EA4
0475870
0474250
0472C44
047164D
047006A
046EA9B
046D4E1
046BF3A
046A9A7
0469428
0467EBC
0466964
046541F
0463EED
04629CF
04614C4
045FFCB
045EAE5
045D612
045C151
045ACA3
0459808
045837E
0456F07
0455AA1
045464E
045320C
0451DDC
04509BE
044F5B2
044E1B6
044CDCC
044B9F3
044A62C
0449275
0447ED0
0446B3B
04457B7
0444444
04430E1
0441D8F
0440A4D
043F71B
043E3FA
043D0E9
043BDE7
043AAF6
0439815
0438543
0437281
0435FCF
0434D2C
0433A98
0432814
043159F
043033A
042F0E3
042DE9C
042CC63
042BA39
042A81F
0429612
0428415
0427226
0426045
0424E73
0423CAF
0422AFA
0421952
04207B9
041F62D
041E4B0
041D341
041C1DF
041B08B
0419F45
0418E0C
0417CE1
0416BC3
0415AB3
04149B0
04138BB
04127D2
04116F7
0410629
040F567
040E4B3
040D40B
040C371
040B2E3
040A261
04091ED
0408185
0407129
04060DA
0405097
0404060
0403036
0402018
0401006
0400000
03FF005
03FE017
03FD035
03FC05F
03FB095
03FA0D5
03F9122
03F817B
03F71DE
03F624E
03F52C9
03F434F
03F33E1
03F247D
03F1525
03F05D8
03EF697
03EE760
03ED835
03EC914
03EB9FE
03EAAF3
03E9BF3
03E8CFE
03E7E13
03E6F33
03E605E
03E5193
03E42D3
03E341D
03E2571
03E16D0
03E0839
03DF9AD
03DEB2A
03DDCB2
03DCE44
03DBFE0
03DB186
03DA337
03D94F1
03D86B5
03D7882
03D6A5A
03D5C3B
03D4E26
03D401B
03D3219
03D2421
03D1633
03D084E
03CFA72
03CECA0
03CDED8
03CD118
03CC362
03CB5B5
03CA812
03C9A77
03C8CE6
03C7F5D
03C71DE
03C6468
03C56FB
03C4997
03C3C3C
03C2EE9
03C21A0
03C145F
03C0727
03BF9F7
03BECD1
03BDFB3
03BD29D
03BC590
03BB88C
03BAB90
03B9E9D
03B91B2
03B84CF
03B77F5
03B6B23
03B5E59
03B5198
03B44DE
03B382D
03B2B84
03B1EE3
03B124B
03B05BA
03AF931
03AECB1
03AE038
03AD3C7
03AC75E
03ABAFD
03AAEA3
03AA252
03A9608
03A89C6
03A7D8C
03A7159
03A652D
03A590A
03A4CEE
03A40D9
03A34CD
03A28C7
03A1CC9
03A10D2
03A04E3
039F8FB
039ED1A
039E141
039D56F
039C9A4
039BDE0
039B224
039A66E
0399AC0
0398F19
0398379
03977E0
0396C4E
03960C2
039553F
03949C1
0393E4B
03932DC
0392773
0391C11
03910B6
0390562
038FA15
038EECE
038E38E
038D854
038CD22
038C1F5
038B6D0
038ABB1
038A098
0389586
0388A7A
0387F76
0387477
038697F
0385E8D
03853A1
03848BC
0383DDD
0383305
0382833
0381D67
03812A1
03807E1
037FD28
037F274
037E7C7
037DD20
037D27F
037C7E4
037BD4F
037B2C0
037A838
0379DB5
0379338
03788C1
0377E4F
03773E4
037697F
0375F1F
03754C5
0374A71
0374023
03735DB
0372B98
037215B
0371724
0370CF2
03702C7
036F8A0
036EE7F
036E464
036DA4F
036D03F
036C634
036BC2F
036B230
036A835
0369E41
0369452
0368A68
0368084
03676A5
0366CCB
03662F7
0365928
0364F5F
036459A
0363BDB
0363221
036286C
0361EBD
0361513
0360B6E
03601CE
035F833
035EE9E
035E50D
035DB82
035D1FB
035C87A
035BEFD
035B586
035AC14
035A2A6
035993E
0358FDB
035867C
0357D22
03573CE
0356A7E
0356133
03557ED
0354EAB
035456F
0353C37
0353304
03529D6
03520AD
0351788
0350E68
035054D
034FC36
034F324
034EA17
034E10E
034D80A
034CF0B
034C610
034BD1A
034B428
034AB3B
034A252
034996E
034908F
03487B3
0347EDD
034760B
0346D3D
0346474
0345BAF
03452EE
0344A32
034417A
03438C7
0343018
034276D
0341EC7
0341625
0340D87
03404ED
033FC58
033F3C7
033EB3A
033E2B1
033DA2D
033D1AD
033C931
033C0B9
033B845
033AFD5
033A76A
0339F03
033969F
0338E40
03385E5
0337D8E
033753B
0336CEC
03364A1
0335C5A
0335417
0334BD8
033439D
0333B66
0333333
0332B03
03322D8
0331AB1
033128D
0330A6E
0330252
032FA3A
032F226
032EA16
032E20A
032DA01
032D1FD
032C9FC
032C1FF
032BA05
032B20F
032AA1D
032A22F
0329A45
032925E
0328A7B
032829C
0327AC0
03272E8
0326B13
0326343
0325B76
03253AC
0324BE6
0324424
0323C65
03234AA
0322CF3
032253F
0321D8E
03215E1
0320E38
0320692
031FEF0
031F751
031EFB5
031E81E
031E089
031D8F8
031D16A
031C9E0
031C259
031BAD6
031B356
031ABDA
031A460
0319CEB
0319578
0318E09
031869D
0317F35
03177D0
031706E
031690F
03161B4
0315A5C
0315308
0314BB6
0314468
0313D1D
03135D6
0312E91
0312750
0312012
03118D7
03111A0
0310A6B
031033A
030FC0C
030F4E1
030EDB9
030E694
030DF73
030D855
030D139
030CA21
030C30C
030BBFA
030B4EB
030ADDF
030A6D6
0309FD0
03098CD
03091CE
0308AD1
03083D7
0307CE0
03075ED
0306EFC
030680E
0306123
0305A3C
0305356
0304C75
0304596
0303EBA
03037E0
030310A
0302A37
0302367
0301C99
03015CE
0300F07
0300842
0300180
02FFAC0
02FF404
02FED4B
02FE694
02FDFE0
02FD92F
02FD281
02FCBD5
02FC52C
02FBE86
02FB7E3
02FB143
02FAAA5
02FA40B
02F9D72
02F96DD
02F904A
02F89BA
02F832D
02F7CA3
02F761B
02F6F96
02F6913
02F6293
02F5C16
02F559C
02F4F24
02F48AF
02F423D
02F3BCD
02F355F
02F2EF5
02F288D
02F2227
02F1BC5
02F1564
02F0F07
02F08AC
02F0253
02EFBFD
02EF5AA
02EEF59
02EE90B
02EE2BF
02EDC76
02ED630
02ECFEB
02EC9AA
02EC36B
02EBD2E
02EB6F4
02EB0BC
02EAA87
02EA455
02E9E24
02E97F7
02E91CB
02E8BA2
02E857C
02E7F58
02E7936
02E7317
02E6CFB
02E66E0
02E60C8
02E5AB3
02E54A0
02E4E8F
02E4881
02E4275
02E3C6B
02E3664
02E305F
02E2A5D
02E245D
02E1E5F
02E1863
02E126A
02E0C73
02E067F
02E008C
02DFA9C
02DF4AF
02DEEC3
02DE8DA
02DE2F4
02DDD0F
02DD72D
02DD14D
02DCB6F
02DC594
02DBFBA
02DB9E3
02DB40F
02DAE3C
02DA86C
02DA29E
02D9CD2
02D9708
02D9141
02D8B7B
02D85B8
02D7FF8
02D7A39
02D747C
02D6EC2
02D690A
02D6354
02D5DA0
02D57EE
02D523E
02D4C91
02D46E6
02D413C
02D3B95
02D35F0
02D304D
02D2AAD
02D250E
02D1F71
02D19D7
02D143F
02D0EA8
02D0914
02D0382
02CFDF2
02CF864
02CF2D8
02CED4E
02CE7C6
02CE240
02CDCBC
02CD73A
02CD1BB
02CCC3D
02CC6C1
02CC147
02CBBD0
02CB65A
02CB0E6
02CAB75
02CA605
02CA097
02C9B2C
02C95C2
02C905A
02C8AF4
02C8590
02C802E
02C7ACE
02C7570
02C7014
02C6ABA
02C6562
02C600B
02C5AB7
02C5565
02C5014
02C4AC5
02C4579
02C402E
02C3AE5
02C359E
02C3059
02C2B16
02C25D4
02C2095
02C1B57
02C161B
02C10E1
02C0BA9
02C0673
02C013E
02BFC0C
02BF6DB
02BF1AC
02BEC80
02BE754
02BE22B
02BDD03
02BD7DE
02BD2BA
02BCD98
02BC877
02BC359
02BBE3C
02BB921
02BB408
02BAEF1
02BA9DB
02BA4C7
02B9FB5
02B9AA5
02B9596
02B908A
02B8B7F
02B8675
02B816E
02B7C68
02B7764
02B7262
02B6D61
02B6862
02B6365
02B5E6A
02B5970
02B5478
02B4F82
02B4A8D
02B459A
02B40A9
02B3BBA
02B36CC
02B31E0
02B2CF6
02B280D
02B2326
02B1E40
02B195D
02B147B
02B0F9A
02B0ABB
02B05DE
02B0103
02AFC29
02AF751
02AF27A
02AEDA5
02AE8D2
02AE401
02ADF31
02ADA62
02AD595
02AD0CA
02ACC01
02AC739
02AC272
02ABDAD
02AB8EA
02AB428
02AAF69
02AAAAA
02AA5ED
02AA132
02A9C78
02A97C0
02A930A
02A8E55
02A89A1
02A84EF
02A803F
02A7B90
02A76E3
02A7237
02A6D8D
02A68E5
02A643E
02A5F98
02A5AF4
02A5652
02A51B1
02A4D11
02A4873
02A43D7
02A3F3C
02A3AA2
02A360A
02A3174
02A2CDF
02A284C
02A23BA
02A1F29
02A1A9A
02A160D
02A1181
02A0CF6
02A086D
02A03E5
029FF5F
029FADB
029F658
029F1D6
029ED55
029E8D6
029E459
029DFDD
029DB62
029D6E9
029D272
029CDFB
029C986
029C513
029C0A1
029BC31
029B7C1
029B354
029AEE7
029AA7C
029A613
029A1AB
0299D44
02998DF
029947B
0299018
0298BB7
0298757
02982F9
0297E9C
0297A40
02975E6
029718D
0296D36
02968DF
029648B
0296037
0295BE5
0295794
0295345
0294EF7
0294AAA
029465F
0294215
0293DCC
0293985
029353F
02930FA
0292CB7
0292874
0292434
0291FF4
0291BB6
0291779
029133E
0290F04
0290ACB
0290693
029025D
028FE28
028F9F4
028F5C2
028F191
028ED61
028E933
028E505
028E0D9
028DCAF
028D885
028D45D
028D036
028CC11
028C7EC
028C3C9
028BFA7
028BB87
028B767
028B349
028AF2D
028AB11
028A6F7
028A2DE
0289EC6
0289AAF
028969A
0289285
0288E73
0288A61
0288650
0288241
0287E33
0287A26
028761B
0287210
0286E07
02869FF
02865F8
02861F3
0285DEE
02859EB
02855E9
02851E8
0284DE9
02849EA
02845ED
02841F1
0283DF6
02839FD
0283604
028320D
0282E17
0282A22
028262E
028223B
0281E4A
0281A59
028166A
028127C
0280E8F
0280AA4
02806B9
02802D0
027FEE8
027FB00
027F71B
027F336
027EF52
027EB6F
027E78E
027E3AE
027DFCE
027DBF0
027D813
027D438
027D05D
027CC84
027C8AB
027C4D4
027C0FE
027BD28
027B955
027B582
027B1B0
027ADDF
027AA10
027A641
027A274
0279EA7
0279ADC
0279712
0279349
0278F81
0278BBA
02787F4
0278430
027806C
0277CAA
02778E8
0277528
0277168
0276DAA
02769ED
0276631
0276276
0275EBC
0275B03
027574B
0275394
0274FDE
0274C29
0274876
02744C3
0274111
0273D61
02739B1
0273603
0273255
0272EA9
0272AFD
0272753
02723AA
0272001
0271C5A
02718B4
027150F
027116A
0270DC7
0270A25
0270684
02702E4
026FF45
026FBA6
026F809
026F46D
026F0D2
026ED38
026E99F
026E606
026E26F
026DED9
026DB44
026D7B0
026D41D
026D08A
026CCF9
026C969
026C5DA
026C24C
026BEBE
026BB32
026B7A6
026B41C
026B093
026AD0A
026A983
026A5FC
026A277
0269EF2
0269B6F
02697EC
026946A
02690EA
0268D6A
02689EB
026866D
02682F0
0267F74
0267BF9
026787F
0267506
026718E
0266E16
0266AA0
026672B
02663B6
0266042
0265CD0
026595E
02655EE
026527E
0264F0F
0264BA1
0264834
02644C7
026415C
0263DF2
0263A89
0263720
02633B9
0263052
0262CEC
0262987
0262623
02622C0
0261F5E
0261BFD
026189C
026153D
02611DE
0260E81
0260B24
02607C8
026046D
0260113
025FDBA
025FA61
025F70A
025F3B3
025F05E
025ED09
025E9B5
025E662
025E310
025DFBE
025DC6E
025D91F
025D5D0
025D282
025CF35
025CBE9
025C89E
025C553
025C20A
025BEC1
025BB79
025B832
025B4EC
025B1A7
025AE63
025AB1F
025A7DC
025A49A
025A159
0259E19
0259ADA
025979B
025945E
0259121
0258DE5
0258AAA
025876F
0258436
02580FD
0257DC6
0257A8F
0257758
0257423
02570EF
0256DBB
0256A88
0256756
0256425
02560F4
0255DC5
0255A96
0255768
025543B
025510E
0254DE3
0254AB8
025478E
0254465
025413D
0253E15
0253AEF
02537C9
02534A3
025317F
0252E5C
0252B39
0252817
02524F6
02521D6
0251EB6
0251B97
0251879
025155C
0251240
0250F24
0250C09
02508EF
02505D6
02502BD
024FFA5
024FC8E
024F978
024F663
024F34E
024F03A
024ED27
024EA15
024E703
024E3F2
024E0E2
024DDD3
024DAC4
024D7B7
024D4AA
024D19D
024CE92
024CB87
024C87D
024C574
024C26B
024BF64
024BC5D
024B956
024B651
024B34C
024B048
024AD45
024AA42
024A741
024A43F
024A13F
0249E40
0249B41
0249843
0249545
0249249
0248F4D
0248C52
0248957
024865D
0248364
024806C
0247D75
0247A7E
0247788
0247492
024719E
0246EAA
0246BB7
02468C4
02465D2
02462E1
0245FF1
0245D01
0245A12
0245724
0245436
024514A
0244E5E
0244B72
0244887
024459D
02442B4
0243FCC
0243CE4
02439FC
0243716
0243430
024314B
0242E67
0242B83
02428A0
02425BE
02422DC
0241FFB
0241D1B
0241A3B
024175C
024147E
02411A0
0240EC4
0240BE7
024090C
0240631
0240357
024007E
023FDA5
023FACD
023F7F5
023F51E
023F248
023EF73
023EC9E
023E9CA
023E6F7
023E424
023E152
023DE81
023DBB0
023D8E0
023D610
023D341
023D073
023CDA6
023CAD9
023C80D
023C541
023C277
023BFAD
023BCE3
023BA1A
023B752
023B48A
023B1C3
023AEFD
023AC38
023A973
023A6AE
023A3EB
023A128
0239E65
0239BA3
02398E2
0239622
0239362
02390A3
0238DE4
0238B26
0238869
02385AC
02382F0
0238035
0237D7A
0237AC0
0237806
023754D
0237295
0236FDE
0236D27
0236A70
02367BA
0236505
0236251
0235F9D
0235CE9
0235A37
0235785
02354D3
0235222
0234F72
0234CC3
0234A14
0234765
02344B8
023420A
0233F5E
0233CB2
0233A07
023375C
02334B2
0233208
0232F5F
0232CB7
0232A0F
0232768
02324C2
023221C
0231F76
0231CD2
0231A2E
023178A
02314E7
0231245
0230FA3
0230D02
0230A62
02307C2
0230522
0230283
022FFE5
022FD48
022FAAB
022F80E
022F572
022F2D7
022F03C
022EDA2
022EB09
022E870
022E5D7
022E340
022E0A8
022DE12
022DB7C
022D8E6
022D651
022D3BD
022D129
022CE96
022CC04
022C971
022C6E0
022C44F
022C1BF
022BF2F
022BCA0
022BA11
022B783
022B4F6
022B269
022AFDC
022AD50
022AAC5
022A83A
022A5B0
022A327
022A09E
0229E15
0229B8D
0229906
022967F
02293F9
0229173
0228EEE
0228C69
02289E5
0228762
02284DF
022825C
0227FDB
0227D59
0227AD9
0227858
02275D9
0227359
02270DB
0226E5D
0226BDF
0226962
02266E6
022646A
02261EF
0225F74
0225CF9
0225A80
0225807
022558E
0225316
022509E
0224E27
0224BB0
022493A
02246C5
0224450
02241DC
0223F68
0223CF4
0223A81
022380F
022359D
022332C
02230BB
0222E4B
0222BDB
022296C
02226FD
022248F
0222222
0221FB5
0221D48
0221ADC
0221870
0221605
022139B
0221131
0220EC7
0220C5E
02209F6
022078E
0220526
02202BF
0220059
021FDF3
021FB8D
021F928
021F6C4
021F460
021F1FD
021EF9A
021ED37
021EAD5
021E874
021E613
021E3B3
021E153
021DEF3
021DC94
021DA36
021D7D8
021D57B
021D31E
021D0C1
021CE66
021CC0A
021C9AF
021C755
021C4FB
021C2A1
021C048
021BDF0
021BB98
021B940
021B6E9
021B493
021B23D
021AFE7
021AD92
021AB3D
021A8E9
021A696
021A442
021A1F0
0219F9E
0219D4C
0219AFB
02198AA
021965A
021940A
02191BA
0218F6C
0218D1D
0218ACF
0218882
0218635
02183E9
021819D
0217F51
0217D06
0217ABB
0217871
0217628
02173DE
0217196
0216F4E
0216D06
0216ABF
0216878
0216631
02163EB
02161A6
0215F61
0215D1C
0215AD8
0215895
0215652
021540F
02151CD
0214F8B
0214D4A
0214B09
02148C9
0214689
0214449
021420A
0213FCB
0213D8D
0213B50
0213913
02136D6
021349A
021325E
0213022
0212DE7
0212BAD
0212973
0212739
0212500
02122C7
021208F
0211E57
0211C20
02119E9
02117B3
021157D
0211347
0211112
0210EDD
0210CA9
0210A75
0210842
021060F
02103DC
02101AA
020FF78
020FD47
020FB16
020F8E6
020F6B6
020F487
020F258
020F029
020EDFB
020EBCD
020E9A0
020E773
020E547
020E31B
020E0EF
020DEC4
020DC99
020DA6F
020D845
020D61C
020D3F3
020D1CA
020CFA2
020CD7B
020CB53
020C92C
020C706
020C4E0
020C2BA
020C095
020BE70
020BC4C
020BA28
020B805
020B5E1
020B3BF
020B19D
020AF7B
020AD59
020AB38
020A918
020A6F8
020A4D8
020A2B9
020A09A
0209E7B
0209C5D
0209A3F
0209822
0209605
02093E9
02091CD
0208FB1
0208D96
0208B7B
0208961
0208747
020852D
0208314
02080FB
0207EE3
0207CCB
0207AB3
020789C
0207685
020746F
0207259
0207044
0206E2F
0206C1A
0206A05
02067F2
02065DE
02063CB
02061B8
0205FA6
0205D94
0205B82
0205971
0205760
0205550
0205340
0205130
0204F21
0204D13
0204B04
02048F6
02046E9
02044DB
02042CE
02040C2
0203EB6
0203CAA
0203A9F
0203894
020368A
0203480
0203276
020306D
0202E64
0202C5B
0202A53
020284B
0202644
020243D
0202236
0202030
0201E2A
0201C24
0201A1F
020181B
0201616
0201412
020120F
020100C
0200E09
0200C06
0200A04
0200803
0200601
0200400
0200200
0200000
01FFE00
01FFC00
01FFA01
01FF802
01FF604
01FF406
01FF209
01FF00B
01FEE0F
01FEC12
01FEA16
01FE81A
01FE61F
01FE424
01FE229
01FE02F
01FDE35
01FDC3C
01FDA43
01FD84A
01FD652
01FD459
01FD262
01FD06A
01FCE73
01FCC7D
01FCA87
01FC891
01FC69B
01FC4A6
01FC2B1
01FC0BD
01FBEC9
01FBCD5
01FBAE2
01FB8EF
01FB6FC
01FB50A
01FB318
01FB127
01FAF35
01FAD45
01FAB54
01FA964
01FA774
01FA585
01FA396
01FA1A7
01F9FB9
01F9DCB
01F9BDD
01F99F0
01F9803
01F9617
01F942A
01F923E
01F9053
01F8E68
01F8C7D
01F8A92
01F88A8
01F86BF
01F84D5
01F82EC
01F8103
01F7F1B
01F7D33
01F7B4B
01F7964
01F777D
01F7596
01F73B0
01F71CA
01F6FE4
01F6DFF
01F6C1A
01F6A35
01F6851
01F666D
01F648A
01F62A7
01F60C4
01F5EE1
01F5CFF
01F5B1D
01F593B
01F575A
01F5579
01F5399
01F51B9
01F4FD9
01F4DF9
01F4C1A
01F4A3B
01F485D
01F467F
01F44A1
01F42C3
01F40E6
01F3F09
01F3D2D
01F3B51
01F3975
01F3799
01F35BE
01F33E3
01F3209
01F302F
01F2E55
01F2C7B
01F2AA2
01F28C9
01F26F1
01F2519
01F2341
01F2169
01F1F92
01F1DBB
01F1BE4
01F1A0E
01F1838
01F1663
01F148D
01F12B8
01F10E4
01F0F0F
01F0D3B
01F0B68
01F0994
01F07C1
01F05EF
01F041C
01F024A
01F0079
01EFEA7
01EFCD6
01EFB05
01EF935
01EF765
01EF595
01EF3C5
01EF1F6
01EF027
01EEE59
01EEC8B
01EEABD
01EE8EF
01EE722
01EE555
01EE388
01EE1BC
01EDFF0
01EDE24
01EDC59
01EDA8E
01ED8C3
01ED6F9
01ED52E
01ED364
01ED19B
01ECFD2
01ECE09
01ECC40
01ECA78
01EC8B0
01EC6E8
01EC521
01EC35A
01EC193
01EBFCD
01EBE07
01EBC41
01EBA7B
01EB8B6
01EB6F1
01EB52D
01EB368
01EB1A4
01EAFE1
01EAE1D
01EAC5A
01EAA97
01EA8D5
01EA713
01EA551
01EA38F
01EA1CE
01EA00D
01E9E4D
01E9C8C
01E9ACC
01E990C
01E974D
01E958E
01E93CF
01E9210
01E9052
01E8E94
01E8CD7
01E8B19
01E895C
01E879F
01E85E3
01E8427
01E826B
01E80AF
01E7EF4
01E7D39
01E7B7E
01E79C4
01E780A
01E7650
01E7496
01E72DD
01E7124
01E6F6C
01E6DB3
01E6BFB
01E6A43
01E688C
01E66D5
01E651E
01E6367
01E61B1
01E5FFB
01E5E45
01E5C8F
01E5ADA
01E5925
01E5771
01E55BD
01E5409
01E5255
01E50A1
01E4EEE
01E4D3B
01E4B89
01E49D6
01E4824
01E4673
01E44C1
01E4310
01E415F
01E3FAE
01E3DFE
01E3C4E
01E3A9E
01E38EF
01E3740
01E3591
01E33E2
01E3234
01E3086
01E2ED8
01E2D2B
01E2B7D
01E29D0
01E2824
01E2677
01E24CB
01E231F
01E2174
01E1FC9
01E1E1E
01E1C73
01E1AC9
01E191E
01E1774
01E15CB
01E1421
01E1278
01E10D0
01E0F27
01E0D7F
01E0BD7
01E0A2F
01E0888
01E06E1
01E053A
01E0393
01E01ED
01E0047
01DFEA1
01DFCFB
01DFB56
01DF9B1
01DF80D
01DF668
01DF4C4
01DF320
01DF17C
01DEFD9
01DEE36
01DEC93
01DEAF1
01DE94E
01DE7AC
01DE60B
01DE469
01DE2C8
01DE127
01DDF86
01DDDE6
01DDC46
01DDAA6
01DD906
01DD767
01DD5C8
01DD429
01DD28A
01DD0EC
01DCF4E
01DCDB0
01DCC13
01DCA75
01DC8D9
01DC73C
01DC59F
01DC403
01DC267
01DC0CC
01DBF30
01DBD95
01DBBFA
01DBA5F
01DB8C5
01DB72B
01DB591
01DB3F8
01DB25E
01DB0C5
01DAF2C
01DAD94
01DABFB
01DAA63
01DA8CC
01DA734
01DA59D
01DA406
01DA26F
01DA0D8
01D9F42
01D9DAC
01D9C16
01D9A81
01D98EC
01D9757
01D95C2
01D942E
01D9299
01D9105
01D8F71
01D8DDE
01D8C4B
01D8AB8
01D8925
01D8793
01D8600
01D846F
01D82DD
01D814B
01D7FBA
01D7E29
01D7C98
01D7B08
01D7978
01D77E8
01D7658
01D74C9
01D7339
01D71AA
01D701C
01D6E8D
01D6CFF
01D6B71
01D69E3
01D6856
01D66C9
01D653B
01D63AF
01D6222
01D6096
01D5F0A
01D5D7E
01D5BF3
01D5A67
01D58DC
01D5751
01D55C7
01D543D
01D52B2
01D5129
01D4F9F
01D4E16
01D4C8D
01D4B04
01D497B
01D47F3
01D466B
01D44E3
01D435B
01D41D4
01D404C
01D3EC6
01D3D3F
01D3BB8
01D3A32
01D38AC
01D3726
01D35A1
01D341B
01D3296
01D3112
01D2F8D
01D2E09
01D2C85
01D2B01
01D297D
01D27FA
01D2677
01D24F4
01D2371
01D21EF
01D206C
01D1EEA
01D1D69
01D1BE7
01D1A66
01D18E5
01D1764
01D15E3
01D1463
01D12E3
01D1163
01D0FE4
01D0E64
01D0CE5
01D0B66
01D09E7
01D0869
01D06EA
01D056C
01D03EF
01D0271
01D00F4
01CFF77
01CFDFA
01CFC7D
01CFB01
01CF985
01CF809
01CF68D
01CF511
01CF396
01CF21B
01CF0A0
01CEF25
01CEDAB
01CEC31
01CEAB7
01CE93D
01CE7C4
01CE64B
01CE4D2
01CE359
01CE1E0
01CE068
01CDEF0
01CDD78
01CDC00
01CDA89
01CD912
01CD79B
01CD624
01CD4AD
01CD337
01CD1C1
01CD04B
01CCED5
01CCD60
01CCBEA
01CCA76
01CC901
01CC78C
01CC618
01CC4A4
01CC330
01CC1BC
01CC049
01CBED5
01CBD62
01CBBF0
01CBA7D
01CB90B
01CB798
01CB627
01CB4B5
01CB343
01CB1D2
01CB061
01CAEF0
01CAD80
01CAC0F
01CAA9F
01CA92F
01CA7BF
01CA650
01CA4E0
01CA371
01CA202
01CA094
01C9F25
01C9DB7
01C9C49
01C9ADB
01C996E
01C9800
01C9693
01C9526
01C93B9
01C924D
01C90E0
01C8F74
01C8E08
01C8C9D
01C8B31
01C89C6
01C885B
01C86F0
01C8585
01C841B
01C82B1
01C8147
01C7FDD
01C7E73
01C7D0A
01C7BA1
01C7A38
01C78CF
01C7767
01C75FE
01C7496
01C732E
01C71C7
01C705F
01C6EF8
01C6D91
01C6C2A
01C6AC3
01C695D
01C67F6
01C6691
01C652B
01C63C5
01C6260
01C60FA
01C5F95
01C5E31
01C5CCC
01C5B68
01C5A03
01C589F
01C573C
01C55D8
01C5475
01C5312
01C51AF
01C504C
01C4EE9
01C4D87
01C4C25
01C4AC3
01C4961
01C4800
01C469E
01C453D
01C43DC
01C427B
01C411B
01C3FBB
01C3E5A
01C3CFB
01C3B9B
01C3A3B
01C38DC
01C377D
01C361E
01C34BF
01C3361
01C3202
01C30A4
01C2F46
01C2DE8
01C2C8B
01C2B2E
01C29D0
01C2874
01C2717
01C25BA
01C245E
01C2302
01C21A6
01C204A
01C1EEE
01C1D93
01C1C38
01C1ADD
01C1982
01C1828
01C16CD
01C1573
01C1419
01C12BF
01C1166
01C100C
01C0EB3
01C0D5A
01C0C01
01C0AA9
01C0950
01C07F8
01C06A0
01C0548
01C03F0
01C0299
01C0142
01BFFEB
01BFE94
01BFD3D
01BFBE6
01BFA90
01BF93A
01BF7E4
01BF68E
01BF539
01BF3E3
01BF28E
01BF139
01BEFE4
01BEE90
01BED3B
01BEBE7
01BEA93
01BE93F
01BE7EC
01BE698
01BE545
01BE3F2
01BE29F
01BE14C
01BDFFA
01BDEA7
01BDD55
01BDC03
01BDAB2
01BD960
01BD80F
01BD6BD
01BD56C
01BD41C
01BD2CB
01BD17A
01BD02A
01BCEDA
01BCD8A
01BCC3A
01BCAEB
01BC99C
01BC84C
01BC6FE
01BC5AF
01BC460
01BC312
01BC1C3
01BC075
01BBF27
01BBDDA
01BBC8C
01BBB3F
01BB9F2
01BB8A5
01BB758
01BB60C
01BB4BF
01BB373
01BB227
01BB0DB
01BAF8F
01BAE44
01BACF9
01BABAD
01BAA62
01BA918
01BA7CD
01BA683
01BA538
01BA3EE
01BA2A5
01BA15B
01BA011
01B9EC8
01B9D7F
01B9C36
01B9AED
01B99A5
01B985C
01B9714
01B95CC
01B9484
01B933C
01B91F5
01B90AD
01B8F66
01B8E1F
01B8CD8
01B8B92
01B8A4B
01B8905
01B87BF
01B8679
01B8533
01B83EE
01B82A8
01B8163
01B801E
01B7ED9
01B7D94
01B7C50
01B7B0B
01B79C7
01B7883
01B773F
01B75FC
01B74B8
01B7375
01B7232
01B70EF
01B6FAC
01B6E6A
01B6D27
01B6BE5
01B6AA3
01B6961
01B681F
01B66DD
01B659C
01B645B
01B631A
01B61D9
01B6098
01B5F58
01B5E17
01B5CD7
01B5B97
01B5A57
01B5918
01B57D8
01B5699
01B555A
01B541A
01B52DC
01B519D
01B505F
01B4F20
01B4DE2
01B4CA4
01B4B66
01B4A29
01B48EB
01B47AE
01B4671
01B4534
01B43F7
01B42BB
01B417E
01B4042
01B3F06
01B3DCA
01B3C8E
01B3B52
01B3A17
01B38DC
01B37A0
01B3665
01B352B
01B33F0
01B32B6
01B317B
01B3041
01B2F07
01B2DCD
01B2C94
01B2B5A
01B2A21
01B28E8
01B27AF
01B2676
01B253E
01B2405
01B22CD
01B2195
01B205D
01B1F25
01B1DED
01B1CB6
01B1B7E
01B1A47
01B1910
01B17DA
01B16A3
01B156C
01B1436
01B1300
01B11CA
01B1094
01B0F5E
01B0E29
01B0CF3
01B0BBE
01B0A89
01B0954
01B0820
01B06EB
01B05B7
01B0482
01B034E
01B021A
01B00E7
01AFFB3
01AFE80
01AFD4C
01AFC19
01AFAE6
01AF9B4
01AF881
01AF74F
01AF61C
01AF4EA
01AF3B8
01AF286
01AF155
01AF023
01AEEF2
01AEDC1
01AEC90
01AEB5F
01AEA2E
01AE8FD
01AE7CD
01AE69D
01AE56D
01AE43D
01AE30D
01AE1DD
01AE0AE
01ADF7E
01ADE4F
01ADD20
01ADBF2
01ADAC3
01AD994
01AD866
01AD738
01AD60A
01AD4DC
01AD3AE
01AD280
01AD153
01AD026
01ACEF9
01ACDCC
01ACC9F
01ACB72
01ACA46
01AC919
01AC7ED
01AC6C1
01AC595
01AC469
01AC33E
01AC212
01AC0E7
01ABFBC
01ABE91
01ABD66
01ABC3B
01ABB11
01AB9E7
01AB8BC
01AB792
01AB668
01AB53F
01AB415
01AB2EC
01AB1C2
01AB099
01AAF70
01AAE47
01AAD1F
01AABF6
01AAACE
01AA9A6
01AA87D
01AA755
01AA62E
01AA506
01AA3DF
01AA2B7
01AA190
01AA069
01A9F42
01A9E1B
01A9CF5
01A9BCE
01A9AA8
01A9982
01A985C
01A9736
01A9610
01A94EB
01A93C5
01A92A0
01A917B
01A9056
01A8F31
01A8E0D
01A8CE8
01A8BC4
01A8A9F
01A897B
01A8858
01A8734
01A8610
01A84ED
01A83C9
01A82A6
01A8183
01A8060
01A7F3D
01A7E1B
01A7CF8
01A7BD6
01A7AB4
01A7992
01A7870
01A774E
01A762D
01A750B
01A73EA
01A72C9
01A71A8
01A7087
01A6F66
01A6E46
01A6D25
01A6C05
01A6AE5
01A69C5
01A68A5
01A6785
01A6666
01A6546
01A6427
01A6308
01A61E9
01A60CA
01A5FAB
01A5E8D
01A5D6E
01A5C50
01A5B32
01A5A14
01A58F6
01A57D8
01A56BB
01A559D
01A5480
01A5363
01A5246
01A5129
01A500C
01A4EF0
01A4DD3
01A4CB7
01A4B9B
01A4A7F
01A4963
01A4847
01A472C
01A4610
01A44F5
01A43D9
01A42BF
01A41A4
01A4089
01A3F6E
01A3E54
01A3D39
01A3C1F
01A3B05
01A39EB
01A38D1
01A37B8
01A369E
01A3585
01A346C
01A3353
01A323A
01A3121
01A3008
01A2EF0
01A2DD7
01A2CBF
01A2BA7
01A2A8F
01A2977
01A285F
01A2748
01A2630
01A2519
01A2402
01A22EB
01A21D4
01A20BD
01A1FA6
01A1E90
01A1D79
01A1C63
01A1B4D
01A1A37
01A1921
01A180C
01A16F6
01A15E1
01A14CC
01A13B6
01A12A1
01A118C
01A1078
01A0F63
01A0E4F
01A0D3A
01A0C26
01A0B12
01A09FE
01A08EA
01A07D7
01A06C3
01A05B0
01A049C
01A0389
01A0276
01A0164
01A0051
019FF3E
019FE2C
019FD19
019FC07
019FAF5
019F9E3
019F8D1
019F7C0
019F6AE
019F59D
019F48B
019F37A
019F269
019F158
019F048
019EF37
019EE27
019ED16
019EC06
019EAF6
019E9E6
019E8D6
019E7C6
019E6B7
019E5A7
019E498
019E389
019E27A
019E16B
019E05C
019DF4D
019DE3F
019DD30
019DC22
019DB14
019DA06
019D8F8
019D7EA
019D6DD
019D5CF
019D4C2
019D3B5
019D2A8
019D19B
019D08E
019CF81
019CE74
019CD68
019CC5C
019CB4F
019CA43
019C937
019C82B
019C720
019C614
019C509
019C3FD
019C2F2
019C1E7
019C0DC
019BFD1
019BEC7
019BDBC
019BCB2
019BBA7
019BA9D
019B993
019B889
019B77F
019B676
019B56C
019B463
019B359
019B250
019B147
019B03E
019AF35
019AE2D
019AD24
019AC1C
019AB13
019AA0B
019A903
019A7FB
019A6F3
019A5EC
019A4E4
019A3DD
019A2D5
019A1CE
019A0C7
0199FC0
0199EB9
0199DB3
0199CAC
0199BA6
0199A9F
0199999
0199893
019978D
0199687
0199581
019947C
0199376
0199271
019916C
0199067
0198F62
0198E5D
0198D58
0198C54
0198B4F
0198A4B
0198946
0198842
019873E
019863A
0198537
0198433
0198330
019822C
0198129
0198026
0197F23
0197E20
0197D1D
0197C1A
0197B18
0197A15
0197913
0197811
019770F
019760D
019750B
0197409
0197308
0197206
0197105
0197003
0196F02
0196E01
0196D00
0196C00
0196AFF
01969FE
01968FE
01967FE
01966FE
01965FD
01964FE
01963FE
01962FE
01961FE
01960FF
0196000
0195F00
0195E01
0195D02
0195C03
0195B05
0195A06
0195907
0195809
019570B
019560D
019550E
0195410
0195313
0195215
0195117
019501A
0194F1C
0194E1F
0194D22
0194C25
0194B28
0194A2C
019492F
0194832
0194736
0194639
019453D
0194441
0194345
0194249
019414E
0194052
0193F56
0193E5B
0193D60
0193C65
0193B69
0193A6E
0193974
0193879
019377E
0193684
0193589
019348F
0193395
019329B
01931A1
01930A7
0192FAE
0192EB4
0192DBB
0192CC1
0192BC8
0192ACF
01929D6
01928DD
01927E4
01926EB
01925F3
01924FA
0192402
019230A
0192212
019211A
0192022
0191F2A
0191E32
0191D3B
0191C43
0191B4C
0191A55
019195E
0191867
0191770
0191679
0191582
019148C
0191395
019129F
01911A9
01910B3
0190FBD
0190EC7
0190DD1
0190CDB
0190BE6
0190AF0
01909FB
0190906
0190811
019071C
0190627
0190532
019043D
0190349
0190254
0190160
019006C
018FF78
018FE84
018FD90
018FC9C
018FBA8
018FAB5
018F9C1
018F8CE
018F7DA
018F6E7
018F5F4
018F501
018F40F
018F31C
018F229
018F137
018F044
018EF52
018EE60
018ED6E
018EC7C
018EB8A
018EA98
018E9A6
018E8B5
018E7C3
018E6D2
018E5E1
018E4F0
018E3FF
018E30E
018E21D
018E12C
018E03C
018DF4B
018DE5B
018DD6B
018DC7B
018DB8B
018DA9B
018D9AB
018D8BB
018D7CB
018D6DC
018D5ED
018D4FD
018D40E
018D31F
018D230
018D141
018D052
018CF64
018CE75
018CD87
018CC98
018CBAA
018CABC
018C9CE
018C8E0
018C7F2
018C704
018C617
018C529
018C43C
018C34E
018C261
018C174
018C087
018BF9A
018BEAD
018BDC1
018BCD4
018BBE8
018BAFB
018BA0F
018B923
018B837
018B74B
018B65F
018B573
018B487
018B39C
018B2B1
018B1C5
018B0DA
018AFEF
018AF04
018AE19
018AD2E
018AC43
018AB59
018AA6E
018A984
018A899
018A7AF
018A6C5
018A5DB
018A4F1
018A407
018A31D
018A234
018A14A
018A061
0189F78
0189E8E
0189DA5
0189CBC
0189BD3
0189AEB
0189A02
0189919
0189831
0189748
0189660
0189578
0189490
01893A8
01892C0
01891D8
01890F0
0189009
0188F21
0188E3A
0188D53
0188C6B
0188B84
0188A9D
01889B6
01888D0
01887E9
0188702
018861C
0188535
018844F
0188369
0188283
018819D
01880B7
0187FD1
0187EEB
0187E06
0187D20
0187C3B
0187B55
0187A70
018798B
01878A6
01877C1
01876DC
01875F7
0187513
018742E
018734A
0187266
0187181
018709D
0186FB9
0186ED5
0186DF1
0186D0E
0186C2A
0186B46
0186A63
018697F
018689C
01867B9
01866D6
01865F3
0186510
018642D
018634B
0186268
0186186
01860A3
0185FC1
0185EDF
0185DFD
0185D1B
0185C39
0185B57
0185A75
0185994
01858B2
01857D0
01856EF
018560E
018552D
018544C
018536B
018528A
01851A9
01850C8
0184FE8
0184F07
0184E27
0184D47
0184C66
0184B86
0184AA6
01849C6
01848E7
0184807
0184727
0184648
0184568
0184489
01843A9
01842CA
01841EB
018410C
018402D
0183F4F
0183E70
0183D91
0183CB3
0183BD4
0183AF6
0183A18
018393A
018385C
018377E
01836A0
01835C2
01834E4
0183407
0183329
018324C
018316F
0183091
0182FB4
0182ED7
0182DFA
0182D1E
0182C41
0182B64
0182A88
01829AB
01828CF
01827F2
0182716
018263A
018255E
0182482
01823A6
01822CB
01821EF
0182113
0182038
0181F5D
0181E81
0181DA6
0181CCB
0181BF0
0181B15
0181A3A
018195F
0181885
01817AA
01816D0
01815F6
018151B
0181441
0181367
018128D
01811B3
01810D9
0180FFF
0180F26
0180E4C
0180D73
0180C99
0180BC0
0180AE7
0180A0E
0180935
018085C
0180783
01806AA
01805D2
01804F9
0180421
0180348
0180270
0180198
01800C0
017FFE8
017FF10
017FE38
017FD60
017FC88
017FBB1
017FAD9
017FA02
017F92A
017F853
017F77C
017F6A5
017F5CE
017F4F7
017F420
017F34A
017F273
017F19C
017F0C6
017EFF0
017EF19
017EE43
017ED6D
017EC97
017EBC1
017EAEB
017EA16
017E940
017E86A
017E795
017E6C0
017E5EA
017E515
017E440
017E36B
017E296
017E1C1
017E0EC
017E018
017DF43
017DE6E
017DD9A
017DCC6
017DBF1
017DB1D
017DA49
017D975
017D8A1
017D7CD
017D6FA
017D626
017D552
017D47F
017D3AC
017D2D8
017D205
017D132
017D05F
017CF8C
017CEB9
017CDE6
017CD13
017CC41
017CB6E
017CA9C
017C9C9
017C8F7
017C825
017C753
017C681
017C5AF
017C4DD
017C40B
017C339
017C268
017C196
017C0C5
017BFF3
017BF22
017BE51
017BD80
017BCAF
017BBDE
017BB0D
017BA3C
017B96C
017B89B
017B7CB
017B6FA
017B62A
017B55A
017B489
017B3B9
017B2E9
017B219
017B149
017B07A
017AFAA
017AEDA
017AE0B
017AD3B
017AC6C
017AB9D
017AACE
017A9FF
017A930
017A861
017A792
017A6C3
017A5F4
017A526
017A457
017A389
017A2BA
017A1EC
017A11E
017A050
0179F82
0179EB4
0179DE6
0179D18
0179C4A
0179B7D
0179AAF
01799E2
0179915
0179847
017977A
01796AD
01795E0
0179513
0179446
0179379
01792AD
01791E0
0179113
0179047
0178F7B
0178EAE
0178DE2
0178D16
0178C4A
0178B7E
0178AB2
01789E6
017891A
017884F
0178783
01786B8
01785EC
0178521
0178456
017838A
01782BF
01781F4
0178129
017805E
0177F94
0177EC9
0177DFE
0177D34
0177C69
0177B9F
0177AD5
0177A0B
0177940
0177876
01777AC
01776E2
0177619
017754F
0177485
01773BC
01772F2
0177229
017715F
0177096
0176FCD
0176F04
0176E3B
0176D72
0176CA9
0176BE0
0176B18
0176A4F
0176986
01768BE
01767F5
017672D
0176665
017659D
01764D5
017640D
0176345
017627D
01761B5
01760ED
0176026
0175F5E
0175E97
0175DCF
0175D08
0175C41
0175B7A
0175AB3
01759EC
0175925
017585E
0175797
01756D1
017560A
0175543
017547D
01753B6
01752F0
017522A
0175164
017509E
0174FD8
0174F12
0174E4C
0174D86
0174CC1
0174BFB
0174B36
0174A70
01749AB
01748E5
0174820
017475B
0174696
01745D1
017450C
0174447
0174383
01742BE
01741F9
0174135
0174070
0173FAC
0173EE8
0173E23
0173D5F
0173C9B
0173BD7
0173B13
0173A4F
017398B
01738C8
0173804
0173741
017367D
01735BA
01734F6
0173433
0173370
01732AD
01731EA
0173127
0173064
0172FA1
0172EDF
0172E1C
0172D59
0172C97
0172BD4
0172B12
0172A50
017298D
01728CB
0172809
0172747
0172685
01725C4
0172502
0172440
017237F
01722BD
01721FC
017213A
0172079
0171FB8
0171EF6
0171E35
0171D74
0171CB3
0171BF3
0171B32
0171A71
01719B0
01718F0
017182F
017176F
01716AF
01715EE
017152E
017146E
01713AE
01712EE
017122E
017116E
01710AE
0170FEF
0170F2F
0170E70
0170DB0
0170CF1
0170C31
0170B72
0170AB3
01709F4
0170935
0170876
01707B7
01706F8
0170639
017057B
01704BC
01703FD
017033F
0170281
01701C2
0170104
0170046
016FF88
016FECA
016FE0C
016FD4E
016FC90
016FBD2
016FB15
016FA57
016F99A
016F8DC
016F81F
016F761
016F6A4
016F5E7
016F52A
016F46D
016F3B0
016F2F3
016F236
016F17A
016F0BD
016F000
016EF44
016EE87
016EDCB
016ED0F
016EC52
016EB96
016EADA
016EA1E
016E962
016E8A6
016E7EA
016E72F
016E673
016E5B7
016E4FC
016E440
016E385
016E2CA
016E20E
016E153
016E098
016DFDD
016DF22
016DE67
016DDAC
016DCF1
016DC37
016DB7C
016DAC2
016DA07
016D94D
016D892
016D7D8
016D71E
016D664
016D5AA
016D4F0
016D436
016D37C
016D2C2
016D208
016D14F
016D095
016CFDC
016CF22
016CE69
016CDAF
016CCF6
016CC3D
016CB84
016CACB
016CA12
016C959
016C8A0
016C7E7
016C72F
016C676
016C5BD
016C505
016C44D
016C394
016C2DC
016C224
016C16C
016C0B4
016BFFC
016BF44
016BE8C
016BDD4
016BD1C
016BC64
016BBAD
016BAF5
016BA3E
016B986
016B8CF
016B818
016B761
016B6AA
016B5F2
016B53C
016B485
016B3CE
016B317
016B260
016B1AA
016B0F3
016B03C
016AF86
016AED0
016AE19
016AD63
016ACAD
016ABF7
016AB41
016AA8B
016A9D5
016A91F
016A869
016A7B3
016A6FE
016A648
016A593
016A4DD
016A428
016A373
016A2BD
016A208
016A153
016A09E
0169FE9
0169F34
0169E7F
0169DCA
0169D16
0169C61
0169BAC
0169AF8
0169A43
016998F
01698DB
0169826
0169772
01696BE
016960A
0169556
01694A2
01693EE
016933A
0169287
01691D3
016911F
016906C
0168FB8
0168F05
0168E52
0168D9E
0168CEB
0168C38
0168B85
0168AD2
0168A1F
016896C
01688B9
0168807
0168754
01686A1
01685EF
016853C
016848A
01683D7
0168325
0168273
01681C1
016810F
016805D
0167FAB
0167EF9
0167E47
0167D95
0167CE3
0167C32
0167B80
0167ACE
0167A1D
016796C
01678BA
0167809
0167758
01676A7
01675F6
0167544
0167494
01673E3
0167332
0167281
01671D0
0167120
016706F
0166FBF
0166F0E
0166E5E
0166DAD
0166CFD
0166C4D
0166B9D
0166AED
0166A3D
016698D
01668DD
016682D
016677E
01666CE
016661E
016656F
01664BF
0166410
0166360
01662B1
0166202
0166153
01660A3
0165FF4
0165F45
0165E97
0165DE8
0165D39
0165C8A
0165BDB
0165B2D
0165A7E
01659D0
0165921
0165873
01657C5
0165716
0165668
01655BA
016550C
016545E
01653B0
0165302
0165254
01651A7
01650F9
016504B
0164F9E
0164EF0
0164E43
0164D96
0164CE8
0164C3B
0164B8E
0164AE1
0164A34
0164987
01648DA
016482D
0164780
01646D3
0164626
016457A
01644CD
0164421
0164374
01642C8
016421B
016416F
01640C3
0164017
0163F6B
0163EBF
0163E13
0163D67
0163CBB
0163C0F
0163B64
0163AB8
0163A0C
0163961
01638B5
016380A
016375E
01636B3
0163608
016355D
01634B2
0163407
016335C
01632B1
0163206
016315B
01630B0
0163005
0162F5B
0162EB0
0162E06
0162D5B
0162CB1
0162C07
0162B5C
0162AB2
0162A08
016295E
01628B4
016280A
0162760
01626B6
016260C
0162562
01624B9
016240F
0162366
01622BC
0162213
0162169
01620C0
0162017
0161F6D
0161EC4
0161E1B
0161D72
0161CC9
0161C20
0161B77
0161ACF
0161A26
016197D
01618D5
016182C
0161784
01616DB
0161633
016158B
01614E2
016143A
0161392
01612EA
0161242
016119A
01610F2
016104A
0160FA2
0160EFA
0160E53
0160DAB
0160D04
0160C5C
0160BB5
0160B0D
0160A66
01609BF
0160917
0160870
01607C9
0160722
016067B
01605D4
016052D
0160487
01603E0
0160339
0160293
01601EC
0160145
016009F
015FFF9
015FF52
015FEAC
015FE06
015FD60
015FCB9
015FC13
015FB6D
015FAC7
015FA22
015F97C
015F8D6
015F830
015F78B
015F6E5
015F640
015F59A
015F4F5
015F44F
015F3AA
015F305
015F25F
015F1BA
015F115
015F070
015EFCB
015EF26
015EE81
015EDDD
015ED38
015EC93
015EBEF
015EB4A
015EAA6
015EA01
015E95D
015E8B8
015E814
015E770
015E6CC
015E627
015E583
015E4DF
015E43B
015E398
015E2F4
015E250
015E1AC
015E109
015E065
015DFC1
015DF1E
015DE7A
015DDD7
015DD34
015DC90
015DBED
015DB4A
015DAA7
015DA04
015D961
015D8BE
015D81B
015D778
015D6D5
015D633
015D590
015D4ED
015D44B
015D3A8
015D306
015D263
015D1C1
015D11F
015D07D
015CFDA
015CF38
015CE96
015CDF4
015CD52
015CCB0
015CC0F
015CB6D
015CACB
015CA29
015C988
015C8E6
015C845
015C7A3
015C702
015C660
015C5BF
015C51E
015C47D
015C3DC
015C33A
015C299
015C1F9
015C158
015C0B7
015C016
015BF75
015BED4
015BE34
015BD93
015BCF3
015BC52
015BBB2
015BB11
015BA71
015B9D1
015B931
015B891
015B7F0
015B750
015B6B0
015B610
015B571
015B4D1
015B431
015B391
015B2F2
015B252
015B1B2
015B113
015B073
015AFD4
015AF35
015AE95
015ADF6
015AD57
015ACB8
015AC19
015AB7A
015AADB
015AA3C
015A99D
015A8FE
015A85F
015A7C1
015A722
015A683
015A5E5
015A546
015A4A8
015A40A
015A36B
015A2CD
015A22F
015A191
015A0F3
015A054
0159FB6
0159F18
0159E7B
0159DDD
0159D3F
0159CA1
0159C03
0159B66
0159AC8
0159A2B
015998D
01598F0
0159852
01597B5
0159718
015967B
01595DD
0159540
01594A3
0159406
0159369
01592CC
0159230
0159193
01590F6
0159059
0158FBD
0158F20
0158E83
0158DE7
0158D4A
0158CAE
0158C12
0158B75
0158AD9
0158A3D
01589A1
0158905
0158869
01587CD
0158731
0158695
01585F9
015855D
01584C2
0158426
015838B
01582EF
0158253
01581B8
015811D
0158081
0157FE6
0157F4B
0157EAF
0157E14
0157D79
0157CDE
0157C43
0157BA8
0157B0D
0157A72
01579D8
015793D
01578A2
0157808
015776D
01576D2
0157638
015759E
0157503
0157469
01573CF
0157334
015729A
0157200
0157166
01570CC
0157032
0156F98
0156EFE
0156E64
0156DCB
0156D31
0156C97
0156BFD
0156B64
0156ACA
0156A31
0156997
01568FE
0156865
01567CC
0156732
0156699
0156600
0156567
01564CE
0156435
015639C
0156303
015626A
01561D2
0156139
01560A0
0156008
0155F6F
0155ED6
0155E3E
0155DA6
0155D0D
0155C75
0155BDD
0155B44
0155AAC
0155A14
015597C
01558E4
015584C
01557B4
015571C
0155684
01555ED
0155555
01554BD
0155426
015538E
01552F6
015525F
01551C8
0155130
0155099
0155001
0154F6A
0154ED3
0154E3C
0154DA5
0154D0E
0154C77
0154BE0
0154B49
0154AB2
0154A1B
0154985
01548EE
0154857
01547C1
015472A
0154694
01545FD
0154567
01544D0
015443A
01543A4
015430E
0154277
01541E1
015414B
01540B5
015401F
0153F89
0153EF4
0153E5E
0153DC8
0153D32
0153C9C
0153C07
0153B71
0153ADC
0153A46
01539B1
015391B
0153886
01537F1
015375C
01536C6
0153631
015359C
0153507
0153472
01533DD
0153348
01532B3
015321F
015318A
01530F5
0153060
0152FCC
0152F37
0152EA3
0152E0E
0152D7A
0152CE5
0152C51
0152BBD
0152B29
0152A94
0152A00
015296C
01528D8
0152844
01527B0
015271C
0152688
01525F5
0152561
01524CD
0152439
01523A6
0152312
015227F
01521EB
0152158
01520C4
0152031
0151F9E
0151F0A
0151E77
0151DE4
0151D51
0151CBE
0151C2B
0151B98
0151B05
0151A72
01519DF
015194D
01518BA
0151827
0151795
0151702
015166F
01515DD
015154A
01514B8
0151426
0151393
0151301
015126F
01511DD
015114A
01510B8
0151026
0150F94
0150F02
0150E71
0150DDF
0150D4D
0150CBB
0150C29
0150B98
0150B06
0150A75
01509E3
0150952
01508C0
015082F
015079D
015070C
015067B
01505EA
0150559
01504C7
0150436
01503A5
0150314
0150283
01501F2
0150162
01500D1
0150040
014FFAF
014FF1F
014FE8E
014FDFE
014FD6D
014FCDD
014FC4C
014FBBC
014FB2C
014FA9B
014FA0B
014F97B
014F8EB
014F85B
014F7CA
014F73A
014F6AA
014F61A
014F58B
014F4FB
014F46B
014F3DB
014F34B
014F2BC
014F22C
014F19D
014F10D
014F07E
014EFEE
014EF5F
014EECF
014EE40
014EDB1
014ED22
014EC93
014EC04
014EB74
014EAE5
014EA56
014E9C8
014E939
014E8AA
014E81B
014E78C
014E6FD
014E66F
014E5E0
014E552
014E4C3
014E435
014E3A6
014E318
014E289
014E1FB
014E16D
014E0DE
014E050
014DFC2
014DF34
014DEA6
014DE18
014DD8A
014DCFC
014DC6E
014DBE0
014DB53
014DAC5
014DA37
014D9AA
014D91C
014D88E
014D801
014D773
014D6E6
014D659
014D5CB
014D53E
014D4B1
014D424
014D396
014D309
014D27C
014D1EF
014D162
014D0D5
014D048
014CFBB
014CF2F
014CEA2
014CE15
014CD88
014CCFC
014CC6F
014CBE3
014CB56
014CACA
014CA3D
014C9B1
014C924
014C898
014C80C
014C780
014C6F4
014C667
014C5DB
014C54F
014C4C3
014C437
014C3AB
014C320
014C294
014C208
014C17C
014C0F1
014C065
014BFD9
014BF4E
014BEC2
014BE37
014BDAB
014BD20
014BC94
014BC09
014BB7E
014BAF3
014BA68
014B9DC
014B951
014B8C6
014B83B
014B7B0
014B725
014B69B
014B610
014B585
014B4FA
014B46F
014B3E5
014B35A
014B2D0
014B245
014B1BB
014B130
014B0A6
014B01B
014AF91
014AF07
014AE7C
014ADF2
014AD68
014ACDE
014AC54
014ABCA
014AB40
014AAB6
014AA2C
014A9A2
014A918
014A88F
014A805
014A77B
014A6F1
014A668
014A5DE
014A555
014A4CB
014A442
014A3B8
014A32F
014A2A6
014A21D
014A193
014A10A
014A081
0149FF8
0149F6F
0149EE6
0149E5D
0149DD4
0149D4B
0149CC2
0149C39
0149BB0
0149B28
0149A9F
0149A16
014998E
0149905
014987D
01497F4
014976C
01496E3
014965B
01495D3
014954A
01494C2
014943A
01493B2
014932A
01492A2
014921A
0149192
014910A
0149082
0148FFA
0148F72
0148EEA
0148E63
0148DDB
0148D53
0148CCC
0148C44
0148BBC
0148B35
0148AAE
0148A26
014899F
0148917
0148890
0148809
0148782
01486FA
0148673
01485EC
0148565
01484DE
0148457
01483D0
0148349
01482C3
014823C
01481B5
014812E
01480A8
0148021
0147F9A
0147F14
0147E8D
0147E07
0147D80
0147CFA
0147C74
0147BED
0147B67
0147AE1
0147A5B
01479D4
014794E
01478C8
0147842
01477BC
0147736
01476B0
014762A
01475A5
014751F
0147499
0147413
014738E
0147308
0147282
01471FD
0147177
01470F2
014706C
0146FE7
0146F62
0146EDC
0146E57
0146DD2
0146D4D
0146CC7
0146C42
0146BBD
0146B38
0146AB3
0146A2E
01469A9
0146925
01468A0
014681B
0146796
0146711
014668D
0146608
0146583
01464FF
014647A
01463F6
0146371
01462ED
0146269
01461E4
0146160
01460DC
0146058
0145FD3
0145F4F
0145ECB
0145E47
0145DC3
0145D3F
0145CBB
0145C37
0145BB3
0145B30
0145AAC
0145A28
01459A4
0145921
014589D
014581A
0145796
0145712
014568F
014560C
0145588
0145505
0145482
01453FE
014537B
01452F8
0145275
01451F2
014516F
01450EB
0145068
0144FE6
0144F63
0144EE0
0144E5D
0144DDA
0144D57
0144CD4
0144C52
0144BCF
0144B4D
0144ACA
0144A47
01449C5
0144942
01448C0
014483E
01447BB
0144739
01446B7
0144635
01445B2
0144530
01444AE
014442C
01443AA
0144328
01442A6
0144224
01441A2
0144120
014409E
014401D
0143F9B
0143F19
0143E98
0143E16
0143D94
0143D13
0143C91
0143C10
0143B8E
0143B0D
0143A8C
0143A0A
0143989
0143908
0143887
0143806
0143784
0143703
0143682
0143601
0143580
01434FF
014347E
01433FE
014337D
01432FC
014327B
01431FA
014317A
01430F9
0143079
0142FF8
0142F77
0142EF7
0142E76
0142DF6
0142D76
0142CF5
0142C75
0142BF5
0142B75
0142AF4
0142A74
01429F4
0142974
01428F4
0142874
01427F4
0142774
01426F4
0142674
01425F4
0142575
01424F5
0142475
01423F6
0142376
01422F6
0142277
01421F7
0142178
01420F8
0142079
0141FFA
0141F7A
0141EFB
0141E7C
0141DFC
0141D7D
0141CFE
0141C7F
0141C00
0141B81
0141B02
0141A83
0141A04
0141985
0141906
0141887
0141809
014178A
014170B
014168C
014160E
014158F
0141511
0141492
0141414
0141395
0141317
0141298
014121A
014119C
014111D
014109F
0141021
0140FA3
0140F25
0140EA7
0140E29
0140DAA
0140D2C
0140CAF
0140C31
0140BB3
0140B35
0140AB7
0140A39
01409BC
014093E
01408C0
0140843
01407C5
0140747
01406CA
014064C
01405CF
0140552
01404D4
0140457
01403DA
014035C
01402DF
0140262
01401E5
0140168
01400EB
014006E
013FFF1
013FF74
013FEF7
013FE7A
013FDFD
013FD80
013FD03
013FC86
013FC0A
013FB8D
013FB10
013FA94
013FA17
013F99B
013F91E
013F8A2
013F825
013F7A9
013F72C
013F6B0
013F634
013F5B7
013F53B
013F4BF
013F443
013F3C7
013F34B
013F2CF
013F253
013F1D7
013F15B
013F0DF
013F063
013EFE7
013EF6B
013EEEF
013EE74
013EDF8
013ED7C
013ED01
013EC85
013EC09
013EB8E
013EB13
013EA97
013EA1C
013E9A0
013E925
013E8AA
013E82E
013E7B3
013E738
013E6BD
013E642
013E5C6
013E54B
013E4D0
013E455
013E3DA
013E35F
013E2E5
013E26A
013E1EF
013E174
013E0F9
013E07F
013E004
013DF89
013DF0F
013DE94
013DE19
013DD9F
013DD24
013DCAA
013DC30
013DBB5
013DB3B
013DAC1
013DA46
013D9CC
013D952
013D8D8
013D85E
013D7E3
013D769
013D6EF
013D675
013D5FB
013D581
013D508
013D48E
013D414
013D39A
013D320
013D2A7
013D22D
013D1B3
013D13A
013D0C0
013D046
013CFCD
013CF53
013CEDA
013CE61
013CDE7
013CD6E
013CCF5
013CC7B
013CC02
013CB89
013CB10
013CA96
013CA1D
013C9A4
013C92B
013C8B2
013C839
013C7C0
013C747
013C6CF
013C656
013C5DD
013C564
013C4EB
013C473
013C3FA
013C381
013C309
013C290
013C218
013C19F
013C127
013C0AE
013C036
013BFBD
013BF45
013BECD
013BE55
013BDDC
013BD64
013BCEC
013BC74
013BBFC
013BB84
013BB0C
013BA94
013BA1C
013B9A4
013B92C
013B8B4
013B83C
013B7C4
013B74D
013B6D5
013B65D
013B5E5
013B56E
013B4F6
013B47F
013B407
013B390
013B318
013B2A1
013B229
013B1B2
013B13B
013B0C3
013B04C
013AFD5
013AF5E
013AEE6
013AE6F
013ADF8
013AD81
013AD0A
013AC93
013AC1C
013ABA5
013AB2E
013AAB7
013AA40
013A9CA
013A953
013A8DC
013A865
013A7EF
013A778
013A702
013A68B
013A614
013A59E
013A527
013A4B1
013A43B
013A3C4
013A34E
013A2D7
013A261
013A1EB
013A175
013A0FF
013A088
013A012
0139F9C
0139F26
0139EB0
0139E3A
0139DC4
0139D4E
0139CD8
0139C63
0139BED
0139B77
0139B01
0139A8B
0139A16
01399A0
013992A
01398B5
013983F
01397CA
0139754
01396DF
0139669
01395F4
013957E
0139509
0139494
013941F
01393A9
0139334
01392BF
013924A
01391D5
013915F
01390EA
0139075
0139000
0138F8B
0138F17
0138EA2
0138E2D
0138DB8
0138D43
0138CCE
0138C5A
0138BE5
0138B70
0138AFC
0138A87
0138A13
013899E
0138929
01388B5
0138840
01387CC
0138758
01386E3
013866F
01385FB
0138586
0138512
013849E
013842A
01383B6
0138342
01382CE
013825A
01381E6
0138172
01380FE
013808A
0138016
0137FA2
0137F2E
0137EBA
0137E47
0137DD3
0137D5F
0137CEC
0137C78
0137C04
0137B91
0137B1D
0137AAA
0137A36
01379C3
013794F
01378DC
0137869
01377F5
0137782
013770F
013769C
0137628
01375B5
0137542
01374CF
013745C
01373E9
0137376
0137303
0137290
013721D
01371AA
0137137
01370C5
0137052
0136FDF
0136F6C
0136EFA
0136E87
0136E14
0136DA2
0136D2F
0136CBD
0136C4A
0136BD8
0136B65
0136AF3
0136A80
0136A0E
013699C
0136929
01368B7
0136845
01367D3
0136761
01366EE
013667C
013660A
0136598
0136526
01364B4
0136442
01363D0
013635F
01362ED
013627B
0136209
0136197
0136126
01360B4
0136042
0135FD0
0135F5F
0135EED
0135E7C
0135E0A
0135D99
0135D27
0135CB6
0135C44
0135BD3
0135B62
0135AF0
0135A7F
0135A0E
013599D
013592B
01358BA
0135849
01357D8
0135767
01356F6
0135685
0135614
01355A3
0135532
01354C1
0135450
01353DF
013536F
01352FE
013528D
013521C
01351AC
013513B
01350CB
013505A
0134FE9
0134F79
0134F08
0134E98
0134E27
0134DB7
0134D47
0134CD6
0134C66
0134BF6
0134B85
0134B15
0134AA5
0134A35
01349C5
0134955
01348E5
0134875
0134805
0134795
0134725
01346B5
0134645
01345D5
0134565
01344F5
0134485
0134416
01343A6
0134336
01342C7
0134257
01341E7
0134178
0134108
0134099
0134029
0133FBA
0133F4A
0133EDB
0133E6C
0133DFC
0133D8D
0133D1E
0133CAE
0133C3F
0133BD0
0133B61
0133AF2
0133A83
0133A14
01339A5
0133936
01338C7
0133858
01337E9
013377A
013370B
013369C
013362D
01335BE
0133550
01334E1
0133472
0133404
0133395
0133326
01332B8
0133249
01331DB
013316C
01330FE
013308F
0133021
0132FB3
0132F44
0132ED6
0132E68
0132DF9
0132D8B
0132D1D
0132CAF
0132C41
0132BD3
0132B64
0132AF7
0132A88
0132A1A
01329AD
013293F
01328D1
0132863
01327F5
0132787
0132719
01326AC
013263E
01325D0
0132562
01324F5
0132487
013241A
01323AC
013233F
01322D1
0132263
01321F6
0132189
013211B
01320AE
0132041
0131FD3
0131F66
0131EF9
0131E8B
0131E1E
0131DB1
0131D44
0131CD7
0131C6A
0131BFD
0131B90
0131B23
0131AB6
0131A49
01319DC
013196F
0131902
0131895
0131829
01317BC
013174F
01316E2
0131676
0131609
013159C
0131530
01314C3
0131457
01313EA
013137E
0131311
01312A5
0131239
01311CC
0131160
01310F4
0131087
013101B
0130FAF
0130F43
0130ED6
0130E6A
0130DFE
0130D92
0130D26
0130CBA
0130C4E
0130BE2
0130B76
0130B0A
0130A9E
0130A32
01309C7
013095B
01308EF
0130883
0130818
01307AC
0130740
01306D5
0130669
01305FD
0130592
0130526
01304BB
013044F
01303E4
0130378
013030D
01302A2
0130236
01301CB
0130160
01300F4
0130089
013001E
012FFB3
012FF48
012FEDD
012FE72
012FE07
012FD9C
012FD30
012FCC6
012FC5B
012FBF0
012FB85
012FB1A
012FAAF
012FA44
012F9D9
012F96F
012F904
012F899
012F82F
012F7C4
012F759
012F6EF
012F684
012F61A
012F5AF
012F545
012F4DA
012F470
012F405
012F39B
012F331
012F2C6
012F25C
012F1F2
012F188
012F11D
012F0B3
012F049
012EFDF
012EF75
012EF0B
012EEA1
012EE37
012EDCD
012ED63
012ECF9
012EC8F
012EC25
012EBBB
012EB51
012EAE8
012EA7E
012EA14
012E9AA
012E941
012E8D7
012E86D
012E804
012E79A
012E731
012E6C7
012E65E
012E5F4
012E58B
012E521
012E4B8
012E44F
012E3E5
012E37C
012E313
012E2A9
012E240
012E1D7
012E16E
012E105
012E09B
012E032
012DFC9
012DF60
012DEF7
012DE8E
012DE25
012DDBC
012DD53
012DCEB
012DC82
012DC19
012DBB0
012DB47
012DADF
012DA76
012DA0D
012D9A4
012D93C
012D8D3
012D86B
012D802
012D79A
012D731
012D6C9
012D660
012D5F8
012D58F
012D527
012D4BF
012D456
012D3EE
012D386
012D31D
012D2B5
012D24D
012D1E5
012D17D
012D115
012D0AC
012D044
012CFDC
012CF74
012CF0C
012CEA4
012CE3C
012CDD5
012CD6D
012CD05
012CC9D
012CC35
012CBCD
012CB66
012CAFE
012CA96
012CA2F
012C9C7
012C95F
012C8F8
012C890
012C829
012C7C1
012C75A
012C6F2
012C68B
012C623
012C5BC
012C555
012C4ED
012C486
012C41F
012C3B7
012C350
012C2E9
012C282
012C21B
012C1B4
012C14D
012C0E5
012C07E
012C017
012BFB0
012BF49
012BEE3
012BE7C
012BE15
012BDAE
012BD47
012BCE0
012BC79
012BC13
012BBAC
012BB45
012BADF
012BA78
012BA11
012B9AB
012B944
012B8DE
012B877
012B811
012B7AA
012B744
012B6DD
012B677
012B610
012B5AA
012B544
012B4DD
012B477
012B411
012B3AB
012B345
012B2DE
012B278
012B212
012B1AC
012B146
012B0E0
012B07A
012B014
012AFAE
012AF48
012AEE2
012AE7C
012AE16
012ADB1
012AD4B
012ACE5
012AC7F
012AC19
012ABB4
012AB4E
012AAE8
012AA83
012AA1D
012A9B8
012A952
012A8EC
012A887
012A822
012A7BC
012A757
012A6F1
012A68C
012A626
012A5C1
012A55C
012A4F7
012A491
012A42C
012A3C7
012A362
012A2FD
012A297
012A232
012A1CD
012A168
012A103
012A09E
012A039
0129FD4
0129F6F
0129F0A
0129EA6
0129E41
0129DDC
0129D77
0129D12
0129CAE
0129C49
0129BE4
0129B7F
0129B1B
0129AB6
0129A51
01299ED
0129988
0129924
01298BF
012985B
01297F6
0129792
012972E
01296C9
0129665
0129601
012959C
0129538
01294D4
012946F
012940B
01293A7
0129343
01292DF
012927B
0129217
01291B3
012914F
01290EB
0129086
0129023
0128FBF
0128F5B
0128EF7
0128E93
0128E2F
0128DCB
0128D67
0128D04
0128CA0
0128C3C
0128BD9
0128B75
0128B11
0128AAE
0128A4A
01289E7
0128983
0128920
01288BC
0128859
01287F5
0128792
012872E
01286CB
0128668
0128604
01285A1
012853E
01284DA
0128477
0128414
01283B1
012834E
01282EB
0128287
0128224
01281C1
012815E
01280FB
0128098
0128035
0127FD2
0127F70
0127F0D
0127EAA
0127E47
0127DE4
0127D81
0127D1F
0127CBC
0127C59
0127BF6
0127B94
0127B31
0127ACE
0127A6C
0127A09
01279A7
0127944
01278E2
012787F
012781D
01277BA
0127758
01276F6
0127693
0127631
01275CF
012756C
012750A
01274A8
0127446
01273E3
0127381
012731F
01272BD
012725B
01271F9
0127197
0127135
01270D3
0127071
012700F
0126FAD
0126F4B
0126EE9
0126E87
0126E26
0126DC4
0126D62
0126D00
0126C9E
0126C3D
0126BDB
0126B79
0126B18
0126AB6
0126A55
01269F3
0126991
0126930
01268CE
012686D
012680B
01267AA
0126749
01266E7
0126686
0126625
01265C3
0126562
0126501
01264A0
012643E
01263DD
012637C
012631B
01262BA
0126259
01261F7
0126196
0126135
01260D4
0126073
0126012
0125FB2
0125F51
0125EF0
0125E8F
0125E2E
0125DCD
0125D6C
0125D0C
0125CAB
0125C4A
0125BE9
0125B89
0125B28
0125AC8
0125A67
0125A06
01259A6
0125945
01258E5
0125884
0125824
01257C3
0125763
0125703
01256A2
0125642
01255E1
0125581
0125521
01254C1
0125460
0125400
01253A0
0125340
01252E0
0125280
012521F
01251BF
012515F
01250FF
012509F
012503F
0124FDF
0124F7F
0124F20
0124EC0
0124E60
0124E00
0124DA0
0124D40
0124CE1
0124C81
0124C21
0124BC1
0124B62
0124B02
0124AA2
0124A43
01249E3
0124984
0124924
01248C5
0124865
0124806
01247A6
0124747
01246E7
0124688
0124629
01245C9
012456A
012450B
01244AB
012444C
01243ED
012438E
012432E
01242CF
0124270
0124211
01241B2
0124153
01240F4
0124095
0124036
0123FD7
0123F78
0123F19
0123EBA
0123E5B
0123DFC
0123D9D
0123D3F
0123CE0
0123C81
0123C22
0123BC4
0123B65
0123B06
0123AA8
0123A49
01239EA
012398C
012392D
01238CF
0123870
0123812
01237B3
0123755
01236F6
0123698
0123639
01235DB
012357D
012351E
01234C0
0123462
0123404
01233A5
0123347
01232E9
012328B
012322D
01231CE
0123170
0123112
01230B4
0123056
0122FF8
0122F9A
0122F3C
0122EDE
0122E80
0122E22
0122DC5
0122D67
0122D09
0122CAB
0122C4D
0122BEF
0122B92
0122B34
0122AD6
0122A79
0122A1B
01229BD
0122960
0122902
01228A5
0122847
01227E9
012278C
012272F
01226D1
0122674
0122616
01225B9
012255B
01224FE
01224A1
0122443
01223E6
0122389
012232C
01222CE
0122271
0122214
01221B7
012215A
01220FD
01220A0
0122043
0121FE6
0121F88
0121F2B
0121ECE
0121E72
0121E15
0121DB8
0121D5B
0121CFE
0121CA1
0121C44
0121BE8
0121B8B
0121B2E
0121AD1
0121A75
0121A18
01219BB
012195E
0121902
01218A5
0121849
01217EC
0121790
0121733
01216D7
012167A
012161E
01215C1
0121565
0121508
01214AC
0121450
01213F3
0121397
012133B
01212DF
0121282
0121226
01211CA
012116E
0121112
01210B5
0121059
0120FFD
0120FA1
0120F45
0120EE9
0120E8D
0120E31
0120DD5
0120D79
0120D1D
0120CC1
0120C65
0120C0A
0120BAE
0120B52
0120AF6
0120A9A
0120A3F
01209E3
0120987
012092C
01208D0
0120874
0120819
01207BD
0120762
0120706
01206AA
012064F
01205F3
0120598
012053D
01204E1
0120486
012042A
01203CF
0120374
0120318
01202BD
0120262
0120206
01201AB
0120150
01200F5
012009A
012003F
011FFE3
011FF88
011FF2D
011FED2
011FE77
011FE1C
011FDC1
011FD66
011FD0B
011FCB0
011FC55
011FBFA
011FB9F
011FB45
011FAEA
011FA8F
011FA34
011F9D9
011F97F
011F924
011F8C9
011F86F
011F814
011F7B9
011F75F
011F704
011F6A9
011F64F
011F5F4
011F59A
011F53F
011F4E5
011F48A
011F430
011F3D6
011F37B
011F321
011F2C6
011F26C
011F212
011F1B7
011F15D
011F103
011F0A9
011F04F
011EFF4
011EF9A
011EF40
011EEE6
011EE8C
011EE32
011EDD8
011ED7E
011ED24
011ECCA
011EC70
011EC16
011EBBC
011EB62
011EB08
011EAAE
011EA54
011E9FA
011E9A0
011E947
011E8ED
011E893
011E839
011E7E0
011E786
011E72C
011E6D3
011E679
011E61F
011E5C6
011E56C
011E513
011E4B9
011E460
011E406
011E3AD
011E353
011E2FA
011E2A0
011E247
011E1EE
011E194
011E13B
011E0E2
011E089
011E02F
011DFD6
011DF7D
011DF24
011DECA
011DE71
011DE18
011DDBF
011DD66
011DD0D
011DCB4
011DC5B
011DC02
011DBA9
011DB50
011DAF7
011DA9E
011DA45
011D9EC
011D993
011D93A
011D8E1
011D889
011D830
011D7D7
011D77E
011D726
011D6CD
011D674
011D61C
011D5C3
011D56A
011D512
011D4B9
011D460
011D408
011D3AF
011D357
011D2FE
011D2A6
011D24D
011D1F5
011D19D
011D144
011D0EC
011D094
011D03B
011CFE3
011CF8B
011CF32
011CEDA
011CE82
011CE2A
011CDD1
011CD79
011CD21
011CCC9
011CC71
011CC19
011CBC1
011CB69
011CB11
011CAB9
011CA61
011CA09
011C9B1
011C959
011C901
011C8A9
011C851
011C7F9
011C7A1
011C74A
011C6F2
011C69A
011C642
011C5EB
011C593
011C53B
011C4E4
011C48C
011C434
011C3DD
011C385
011C32D
011C2D6
011C27E
011C227
011C1CF
011C178
011C120
011C0C9
011C072
011C01A
011BFC3
011BF6B
011BF14
011BEBD
011BE65
011BE0E
011BDB7
011BD60
011BD08
011BCB1
011BC5A
011BC03
011BBAC
011BB55
011BAFE
011BAA6
011BA4F
011B9F8
011B9A1
011B94A
011B8F3
011B89C
011B845
011B7EF
011B798
011B741
011B6EA
011B693
011B63C
011B5E5
011B58F
011B538
011B4E1
011B48A
011B434
011B3DD
011B386
011B330
011B2D9
011B282
011B22C
011B1D5
011B17F
011B128
011B0D2
011B07B
011B025
011AFCE
011AF78
011AF21
011AECB
011AE74
011AE1E
011ADC8
011AD71
011AD1B
011ACC5
011AC6F
011AC18
011ABC2
011AB6C
011AB16
011AAC0
011AA69
011AA13
011A9BD
011A967
011A911
011A8BB
011A865
011A80F
011A7B9
011A763
011A70D
011A6B7
011A661
011A60B
011A5B5
011A55F
011A50A
011A4B4
011A45E
011A408
011A3B2
011A35D
011A307
011A2B1
011A25C
011A206
011A1B0
011A15B
011A105
011A0AF
011A05A
011A004
0119FAF
0119F59
0119F04
0119EAE
0119E59
0119E03
0119DAE
0119D58
0119D03
0119CAE
0119C58
0119C03
0119BAE
0119B58
0119B03
0119AAE
0119A59
0119A03
01199AE
0119959
0119904
01198AF
011985A
0119805
01197AF
011975A
0119705
01196B0
011965B
0119606
01195B1
011955C
0119507
01194B3
011945E
0119409
01193B4
011935F
011930A
01192B5
0119261
011920C
01191B7
0119162
011910E
01190B9
0119064
0119010
0118FBB
0118F66
0118F12
0118EBD
0118E69
0118E14
0118DC0
0118D6B
0118D17
0118CC2
0118C6E
0118C19
0118BC5
0118B70
0118B1C
0118AC8
0118A73
0118A1F
01189CB
0118977
0118922
01188CE
011887A
0118826
01187D1
011877D
0118729
01186D5
0118681
011862D
01185D9
0118585
0118531
01184DD
0118488
0118434
01183E1
011838D
0118339
01182E5
0118291
011823D
01181E9
0118195
0118141
01180EE
011809A
0118046
0117FF2
0117F9F
0117F4B
0117EF7
0117EA4
0117E50
0117DFC
0117DA9
0117D55
0117D01
0117CAE
0117C5A
0117C07
0117BB3
0117B60
0117B0C
0117AB9
0117A66
0117A12
01179BF
011796B
0117918
01178C5
0117871
011781E
01177CB
0117777
0117724
01176D1
011767E
011762B
01175D7
0117584
0117531
01174DE
011748B
0117438
01173E5
0117392
011733E
01172EB
0117299
0117246
01171F3
01171A0
011714D
01170FA
01170A7
0117054
0117001
0116FAE
0116F5B
0116F09
0116EB6
0116E63
0116E10
0116DBE
0116D6B
0116D18
0116CC6
0116C73
0116C20
0116BCE
0116B7B
0116B28
0116AD6
0116A83
0116A31
01169DE
011698C
0116939
01168E7
0116894
0116842
01167F0
011679D
011674B
01166F8
01166A6
0116654
0116602
01165AF
011655D
011650B
01164B8
0116466
0116414
01163C2
0116370
011631E
01162CC
0116279
0116227
01161D5
0116183
0116131
01160DF
011608D
011603B
0115FE9
0115F97
0115F45
0115EF3
0115EA1
0115E50
0115DFE
0115DAC
0115D5A
0115D08
0115CB7
0115C65
0115C13
0115BC1
0115B70
0115B1E
0115ACC
0115A7B
0115A29
01159D7
0115986
0115934
01158E2
0115891
011583F
01157EE
011579C
011574B
01156F9
01156A8
0115656
0115605
01155B4
0115562
0115511
01154C0
011546E
011541D
01153CC
011537A
0115329
01152D8
0115287
0115235
01151E4
0115193
0115142
01150F1
01150A0
011504F
0114FFD
0114FAC
0114F5B
0114F0A
0114EB9
0114E68
0114E17
0114DC6
0114D75
0114D25
0114CD4
0114C83
0114C32
0114BE1
0114B90
0114B3F
0114AEF
0114A9E
0114A4D
01149FC
01149AB
011495B
011490A
01148B9
0114869
0114818
01147C7
0114777
0114726
01146D6
0114685
0114634
01145E4
0114593
0114543
01144F2
01144A2
0114452
0114401
01143B1
0114360
0114310
01142C0
011426F
011421F
01141CF
011417E
011412E
01140DE
011408D
011403D
0113FED
0113F9D
0113F4D
0113EFD
0113EAC
0113E5C
0113E0C
0113DBC
0113D6C
0113D1C
0113CCC
0113C7C
0113C2C
0113BDC
0113B8C
0113B3C
0113AEC
0113A9C
0113A4C
01139FC
01139AC
011395D
011390D
01138BD
011386D
011381D
01137CE
011377E
011372E
01136DE
011368F
011363F
01135EF
01135A0
0113550
0113501
01134B1
0113461
0113412
01133C2
0113373
0113323
01132D4
0113284
0113235
01131E5
0113196
0113146
01130F7
01130A8
0113058
0113009
0112FBA
0112F6A
0112F1B
0112ECC
0112E7C
0112E2D
0112DDE
0112D8F
0112D40
0112CF0
0112CA1
0112C52
0112C03
0112BB4
0112B65
0112B16
0112AC7
0112A78
0112A29
01129DA
011298B
011293C
01128ED
011289E
011284F
0112800
01127B1
0112762
0112713
01126C4
0112676
0112627
01125D8
0112589
011253A
01124EC
011249D
011244E
0112400
01123B1
0112362
0112314
01122C5
0112276
0112228
01121D9
011218B
011213C
01120EE
011209F
0112050
0112002
0111FB4
0111F65
0111F17
0111EC8
0111E7A
0111E2C
0111DDD
0111D8F
0111D40
0111CF2
0111CA4
0111C56
0111C07
0111BB9
0111B6B
0111B1D
0111ACE
0111A80
0111A32
01119E4
0111996
0111948
01118FA
01118AB
011185D
011180F
01117C1
0111773
0111725
01116D7
0111689
011163B
01115ED
01115A0
0111552
0111504
01114B6
0111468
011141A
01113CC
011137E
0111331
01112E3
0111295
0111247
01111FA
01111AC
011115E
0111111
01110C3
0111075
0111028
0110FDA
0110F8C
0110F3F
0110EF1
0110EA4
0110E56
0110E09
0110DBB
0110D6E
0110D20
0110CD3
0110C85
0110C38
0110BEA
0110B9D
0110B50
0110B02
0110AB5
0110A68
0110A1A
01109CD
0110980
0110933
01108E5
0110898
011084B
01107FE
01107B0
0110763
0110716
01106C9
011067C
011062F
01105E2
0110595
0110548
01104FB
01104AE
0110461
0110414
01103C7
011037A
011032D
01102E0
0110293
0110246
01101F9
01101AC
011015F
0110113
01100C6
0110079
011002C
010FFDF
010FF93
010FF46
010FEF9
010FEAC
010FE60
010FE13
010FDC6
010FD7A
010FD2D
010FCE1
010FC94
010FC47
010FBFB
010FBAE
010FB62
010FB15
010FAC9
010FA7C
010FA30
010F9E3
010F997
010F94A
010F8FE
010F8B2
010F865
010F819
010F7CD
010F780
010F734
010F6E8
010F69B
010F64F
010F603
010F5B7
010F56A
010F51E
010F4D2
010F486
010F43A
010F3EE
010F3A2
010F355
010F309
010F2BD
010F271
010F225
010F1D9
010F18D
010F141
010F0F5
010F0A9
010F05D
010F011
010EFC5
010EF79
010EF2E
010EEE2
010EE96
010EE4A
010EDFE
010EDB2
010ED67
010ED1B
010ECCF
010EC83
010EC38
010EBEC
010EBA0
010EB54
010EB09
010EABD
010EA71
010EA26
010E9DA
010E98F
010E943
010E8F8
010E8AC
010E860
010E815
010E7C9
010E77E
010E733
010E6E7
010E69C
010E650
010E605
010E5B9
010E56E
010E523
010E4D7
010E48C
010E441
010E3F5
010E3AA
010E35F
010E314
010E2C8
010E27D
010E232
010E1E7
010E19C
010E150
010E105
010E0BA
010E06F
010E024
010DFD9
010DF8E
010DF43
010DEF8
010DEAD
010DE62
010DE17
010DDCC
010DD81
010DD36
010DCEB
010DCA0
010DC55
010DC0A
010DBBF
010DB74
010DB2A
010DADF
010DA94
010DA49
010D9FE
010D9B4
010D969
010D91E
010D8D3
010D889
010D83E
010D7F3
010D7A9
010D75E
010D713
010D6C9
010D67E
010D634
010D5E9
010D59E
010D554
010D509
010D4BF
010D474
010D42A
010D3DF
010D395
010D34B
010D300
010D2B6
010D26B
010D221
010D1D7
010D18C
010D142
010D0F8
010D0AD
010D063
010D019
010CFCF
010CF84
010CF3A
010CEF0
010CEA6
010CE5C
010CE11
010CDC7
010CD7D
010CD33
010CCE9
010CC9F
010CC55
010CC0B
010CBC1
010CB77
010CB2D
010CAE3
010CA99
010CA4F
010CA05
010C9BB
010C971
010C927
010C8DD
010C893
010C849
010C7FF
010C7B6
010C76C
010C722
010C6D8
010C68E
010C645
010C5FB
010C5B1
010C567
010C51E
010C4D4
010C48A
010C441
010C3F7
010C3AD
010C364
010C31A
010C2D1
010C287
010C23E
010C1F4
010C1AB
010C161
010C118
010C0CE
010C085
010C03B
010BFF2
010BFA8
010BF5F
010BF16
010BECC
010BE83
010BE39
010BDF0
010BDA7
010BD5D
010BD14
010BCCB
010BC82
010BC38
010BBEF
010BBA6
010BB5D
010BB14
010BACA
010BA81
010BA38
010B9EF
010B9A6
010B95D
010B914
010B8CB
010B882
010B839
010B7F0
010B7A7
010B75E
010B715
010B6CC
010B683
010B63A
010B5F1
010B5A8
010B55F
010B516
010B4CD
010B484
010B43C
010B3F3
010B3AA
010B361
010B318
010B2D0
010B287
010B23E
010B1F5
010B1AD
010B164
010B11B
010B0D3
010B08A
010B041
010AFF9
010AFB0
010AF68
010AF1F
010AED7
010AE8E
010AE45
010ADFD
010ADB4
010AD6C
010AD23
010ACDB
010AC93
010AC4A
010AC02
010ABB9
010AB71
010AB29
010AAE0
010AA98
010AA50
010AA07
010A9BF
010A977
010A92E
010A8E6
010A89E
010A856
010A80D
010A7C5
010A77D
010A735
010A6ED
010A6A5
010A65C
010A614
010A5CC
010A584
010A53C
010A4F4
010A4AC
010A464
010A41C
010A3D4
010A38C
010A344
010A2FC
010A2B4
010A26C
010A224
010A1DC
010A194
010A14D
010A105
010A0BD
010A075
010A02D
0109FE5
0109F9E
0109F56
0109F0E
0109EC6
0109E7F
0109E37
0109DEF
0109DA8
0109D60
0109D18
0109CD1
0109C89
0109C41
0109BFA
0109BB2
0109B6B
0109B23
0109ADC
0109A94
0109A4D
0109A05
01099BE
0109976
010992F
01098E7
01098A0
0109858
0109811
01097C9
0109782
010973B
01096F3
01096AC
0109665
010961D
01095D6
010958F
0109548
0109500
01094B9
0109472
010942B
01093E4
010939C
0109355
010930E
01092C7
0109280
0109239
01091F2
01091AA
0109163
010911C
01090D5
010908E
0109047
0109000
0108FB9
0108F72
0108F2B
0108EE4
0108E9E
0108E57
0108E10
0108DC9
0108D82
0108D3B
0108CF4
0108CAD
0108C67
0108C20
0108BD9
0108B92
0108B4B
0108B05
0108ABE
0108A77
0108A31
01089EA
01089A3
010895D
0108916
01088CF
0108889
0108842
01087FB
01087B5
010876E
0108728
01086E1
010869B
0108654
010860E
01085C7
0108581
010853A
01084F4
01084AD
0108467
0108421
01083DA
0108394
010834D
0108307
01082C1
010827A
0108234
01081EE
01081A7
0108161
010811B
01080D5
010808F
0108048
0108002
0107FBC
0107F76
0107F30
0107EEA
0107EA3
0107E5D
0107E17
0107DD1
0107D8B
0107D45
0107CFF
0107CB9
0107C73
0107C2D
0107BE7
0107BA1
0107B5B
0107B15
0107ACF
0107A89
0107A43
01079FD
01079B7
0107972
010792C
01078E6
01078A0
010785A
0107814
01077CF
0107789
0107743
01076FD
01076B8
0107672
010762C
01075E6
01075A1
010755B
0107515
01074D0
010748A
0107445
01073FF
01073B9
0107374
010732E
01072E9
01072A3
010725E
0107218
01071D3
010718D
0107148
0107102
01070BD
0107077
0107032
0106FED
0106FA7
0106F62
0106F1C
0106ED7
0106E92
0106E4C
0106E07
0106DC2
0106D7D
0106D37
0106CF2
0106CAD
0106C68
0106C22
0106BDD
0106B98
0106B53
0106B0E
0106AC9
0106A83
0106A3E
01069F9
01069B4
010696F
010692A
01068E5
01068A0
010685B
0106816
01067D1
010678C
0106747
0106702
01066BD
0106678
0106633
01065EE
01065A9
0106564
0106520
01064DB
0106496
0106451
010640C
01063C7
0106383
010633E
01062F9
01062B4
0106270
010622B
01061E6
01061A2
010615D
0106118
01060D4
010608F
010604A
0106006
0105FC1
0105F7D
0105F38
0105EF3
0105EAF
0105E6A
0105E26
0105DE1
0105D9D
0105D58
0105D14
0105CCF
0105C8B
0105C46
0105C02
0105BBE
0105B79
0105B35
0105AF0
0105AAC
0105A68
0105A24
01059DF
010599B
0105957
0105912
01058CE
010588A
0105846
0105801
01057BD
0105779
0105735
01056F1
01056AC
0105668
0105624
01055E0
010559C
0105558
0105514
01054D0
010548C
0105448
0105404
01053C0
010537C
0105338
01052F4
01052B0
010526C
0105228
01051E4
01051A0
010515C
0105118
01050D4
0105090
010504D
0105009
0104FC5
0104F81
0104F3D
0104EFA
0104EB6
0104E72
0104E2E
0104DEB
0104DA7
0104D63
0104D1F
0104CDC
0104C98
0104C54
0104C11
0104BCD
0104B8A
0104B46
0104B02
0104ABF
0104A7B
0104A38
01049F4
01049B1
010496D
010492A
01048E6
01048A3
010485F
010481C
01047D8
0104795
0104752
010470E
01046CB
0104687
0104644
0104601
01045BD
010457A
0104537
01044F3
01044B0
010446D
010442A
01043E6
01043A3
0104360
010431D
01042DA
0104296
0104253
0104210
01041CD
010418A
0104147
0104104
01040C0
010407D
010403A
0103FF7
0103FB4
0103F71
0103F2E
0103EEB
0103EA8
0103E65
0103E22
0103DDF
0103D9C
0103D59
0103D17
0103CD4
0103C91
0103C4E
0103C0B
0103BC8
0103B85
0103B42
0103B00
0103ABD
0103A7A
0103A37
01039F5
01039B2
010396F
010392C
01038EA
01038A7
0103864
0103822
01037DF
010379C
010375A
0103717
01036D4
0103692
010364F
010360D
01035CA
0103588
0103545
0103502
01034C0
010347D
010343B
01033F9
01033B6
0103374
0103331
01032EF
01032AC
010326A
0103228
01031E5
01031A3
0103160
010311E
01030DC
010309A
0103057
0103015
0102FD3
0102F90
0102F4E
0102F0C
0102ECA
0102E87
0102E45
0102E03
0102DC1
0102D7F
0102D3D
0102CFA
0102CB8
0102C76
0102C34
0102BF2
0102BB0
0102B6E
0102B2C
0102AEA
0102AA8
0102A66
0102A24
01029E2
01029A0
010295E
010291C
01028DA
0102898
0102856
0102814
01027D2
0102790
010274F
010270D
01026CB
0102689
0102647
0102605
01025C4
0102582
0102540
01024FE
01024BD
010247B
0102439
01023F7
01023B6
0102374
0102332
01022F1
01022AF
010226D
010222C
01021EA
01021A9
0102167
0102125
01020E4
01020A2
0102061
010201F
0101FDE
0101F9C
0101F5B
0101F19
0101ED8
0101E96
0101E55
0101E14
0101DD2
0101D91
0101D4F
0101D0E
0101CCD
0101C8B
0101C4A
0101C09
0101BC7
0101B86
0101B45
0101B03
0101AC2
0101A81
0101A40
01019FE
01019BD
010197C
010193B
01018FA
01018B8
0101877
0101836
01017F5
01017B4
0101773
0101732
01016F0
01016AF
010166E
010162D
01015EC
01015AB
010156A
0101529
01014E8
01014A7
0101466
0101425
01013E4
01013A3
0101363
0101322
01012E1
01012A0
010125F
010121E
01011DD
010119C
010115C
010111B
01010DA
0101099
0101058
0101018
0100FD7
0100F96
0100F55
0100F15
0100ED4
0100E93
0100E53
0100E12
0100DD1
0100D91
0100D50
0100D0F
0100CCF
0100C8E
0100C4E
0100C0D
0100BCC
0100B8C
0100B4B
0100B0B
0100ACA
0100A8A
0100A49
0100A09
01009C8
0100988
0100948
0100907
01008C7
0100886
0100846
0100806
01007C5
0100785
0100744
0100704
01006C4
0100683
0100643
0100603
01005C3
0100582
0100542
0100502
01004C2
0100481
0100441
0100401
01003C1
0100381
0100340
0100300
01002C0
0100280
0100240
0100200
01001C0
0100180
0100140
0100100
01000C0
0100080
0100040

