13C3A4C0
13A74085
138B051F
136EF246
135307B2
1337454D
131BAAB9
130037C8
12E4EC4D
12C9C805
12AECAC4
1293F431
1279444D
125EBAAB
12445723
122A198A
121001A2
11F60F42
11DC4218
11C29A10
11A916C8
118FB840
11767E16
115D6837
11447658
112BA853
1112FDF1
10FA76FA
10E2134A
10C9D299
10B1B4B4
1099B987
1081E0BD
106A2A44
105295D8
103B2348
1023D261
100CA303
0FF594ED
0FDEA7EF
0FC7DBF9
0FB130AD
0F9AA5ED
0F843B99
0F6DF176
0F57C765
0F41BD0D
0F2BD26F
0F160751
0F005B79
0EEACECB
0ED5610F
0EC0120E
0EAAE1C8
0E95CFD1
0E80DC28
0E6C069A
0E574F0B
0E42B52E
0E2E38E9
0E19DA0B
0E059879
0DF17403
0DDD6C78
0DC981A7
0DB5B391
0DA201D6
0D8E6C60
0D7AF317
0D6795CE
0D545457
0D412E70
0D2E242F
0D1B3526
0D08616B
0CF5A8A8
0CE30ADE
0CD087B9
0CBE1F3A
0CABD136
0C999D72
0C8783C6
0C758432
0C639E68
0C51D267
0C401FE4
0C2E86CB
0C1D070B
0C0BA06A
0BFA52C6
0BE91DFA
0BD801E2
0BC6FE5C
0BB61355
0BA54089
0B9485F8
0B83E36F
0B7358BC
0B62E5DF
0B528A97
0B4246D3
0B321A65
0B22053C
0B12072A
0B02200F
0AF24FCE
0AE29648
0AD2F350
0AC366D7
0AB3F0A5
0AA490B8
0A9546E5
0A8612F5
0A76F4E8
0A67EC94
0A58F9DD
0A4A1C8F
0A3B54B5
0A2CA202
0A1E0469
0A0F7BDC
0A010828
09F2A935
09E45EEA
09D62922
09C807C4
09B9FAB8
09AC01DB
099E1D15
09904C37
09828F37
0974E5FD
09675051
0959CE34
094C5F78
093F0414
0931BBD2
092486B1
0917647D
090A552C
08FD589F
08F06EC2
08E39761
08D6D27E
08CA1FF1
08BD7F9D
08B0F16E
08A47549
08980B11
088BB2B3
087F6C14
08733710
08671394
085B018F
084F00D5
08431167
08373318
082B65D9
081FA987
0813FE12
08086362
07FCD95E
07F15FED
07E5F6F2
07DA9E6A
07CF5628
07C41E1C
07B8F629
07ADDE3E
07A2D63F
0797DE1D
078CF5BB
07821D0A
077753E0
076C9A3E
0761F006
0757551E
074CC979
07424CED
0737DF7C
072D80FD
07233164
0718F0A4
070EBE98
07049B31
06FA8659
06F08002
06E68808
06DC9E6B
06D2C308
06C8F5C7
06BF369D
06B5857F
06ABE23E
06A24CDB
0698C540
068F4B4C
0685DEFF
067C8039
06732EE5
0669EAF8
0660B453
06578AED
064E6EBA
06455F93
063C5D6F
06336843
062A7FF1
0621A469
0618D59E
06101377
06075DE0
05FEB4D9
05F61835
05ED87F4
05E5040E
05DC8C55
05D420CB
05CBC157
05C36DE6
05BB2671
05B2EADE
05AABB1F
05A29721
059A7ED7
0592722E
058A7119
05827B78
057A9153
0572B28B
056ADF0B
056316CA
055B59B3
0553A7C0
054C00D9
054464F9
053CD3F5
05354DE2
052DD291
05266208
051EFC25
0517A0EA
0510503B
05090A12
0501CE5D
04FA9D0E
04F3760D
04EC5959
04E546DA
04DE3E7F
04D74041
04D04C14
04C961E1
04C28198
04BBAB37
04B4DEA2
04AE1BD5
04A762BF
04A0B34E
049A0D79
04937135
048CDE6D
04865516
047FD521
04795E84
0472F12F
046C8D14
04663229
045FE05F
045997AD
045357FB
044D2144
0446F37F
0440CE99
043AB285
04349F36
042E94A2
042892C0
0422997C
041CA8CB
0416C0A3
0410E0F9
040B09C2
04053AE9
03FF746B
03F9B63A
03F40043
03EE5287
03E8ACED
03E30F76
03DD7A0C
03D7ECA5
03D2673C
03CCE9C2
03C77427
03C20665
03BCA075
03B74241
03B1EBC3
03AC9CF3
03A755BE
03A21623
039CDE0F
0397AD7A
03928459
038D62A4
0388484F
0383354D
037E2998
0379251D
037427D8
036F31C1
036A42CC
03655AE9
03607A11
035BA03F
0356CD62
03520173
034D3C68
03487E3C
0343C6D9
033F1643
033A6C67
0335C93E
03312CBE
032C96DE
03280792
03237ED6
031EFC9C
031A80DD
03160B8C
03119CA4
030D341C
0308D1E9
030475FE
0300205C
02FBD0EF
02F787B5
02F344A2
02EF07B0
02EAD0D5
02E6A004
02E2753E
02DE5072
02DA3197
02D618A9
02D2059D
02CDF86D
02C9F10F
02C5EF7B
02C1F3A8
02BDFD8C
02BA0D22
02B62263
02B23D41
02AE5DBA
02AA83C2
02A6AF50
02A2E061
029F16EB
029B52E3
02979446
0293DB0A
02902728
028C7896
0288CF4D
02852B4B
02818C7F
027DF2EA
027A5E7E
0276CF37
0273450D
026FBFFA
026C3FF3
0268C4F5
02654EF7
0261DDF3
025E71E1
025B0AB7
0257A871
02544B07
0250F272
024D9EAB
024A4FAD
02470572
0243BFEF
02407F1D
023D42FA
023A0B7B
0236D89B
0233AA53
0230809F
022D5B74
022A3ACD
02271EA6
022406F6
0220F3B8
021DE4E6
021ADA75
0217D466
0214D2AD
0211D544
020EDC29
020BE752
0208F6BB
02060A5D
02032231
02003E33
01FD5E5A
01FA82A7
01F7AB0C
01F4D787
01F2080F
01EF3CA1
01EC753A
01E9B1CD
01E6F25B
01E436DC
01E17F46
01DECB99
01DC1BCE
01D96FE1
01D6C7C8
01D42380
01D18304
01CEE650
01CC4D5B
01C9B820
01C7269B
01C498C9
01C20E9D
01BF881B
01BD053A
01BA85F6
01B80A46
01B59224
01B31D94
01B0AC87
01AE3EFC
01ABD4EF
01A96E5C
01A70B38
01A4AB83
01A24F38
019FF652
019DA0C8
019B4E9A
0198FFC1
0196B43A
01946C00
0192270C
018FE55A
018DA6E4
018B6BAA
018933A4
0186FECE
0184CD23
01829E9E
0180733E
017E4AFA
017C25CF
017A03B9
0177E4B5
0175C8BA
0173AFC9
017199DB
016F86EC
016D76F7
016B69F9
01695FEE
016758D0
0165549C
0163534D
016154E0
015F594F
015D6097
015B6AB7
015977A6
01578762
015599E6
0153AF30
0151C73B
014FE202
014DFF82
014C1FB8
014A42A0
01486833
01469071
0144BB55
0142E8D9
014118FE
013F4BBB
013D8110
013BB8F7
0139F36E
0138306F
01366FF9
0134B206
0132F695
01313DA2
012F8726
012DD322
012C218F
012A726A
0128C5B2
01271B62
01257374
0123CDEA
01222ABD
012089E8
011EEB6C
011D4F42
011BB569
011A1DDC
01188899
0116F59D
011564E1
0113D667
01124A2A
0110C025
010F3856
010DB2B9
010C2F4E
010AAE0E
01092EF7
0107B207
0106373B
0104BE8E
010347FE
0101D388
0100612A
00FEF0E0
00FD82A6
00FC167A
00FAAC5A
00F94444
00F7DE30
00F67A20
00F5180F
00F3B7FA
00F259E0
00F0FDBD
00EFA38E
00EE4B50
00ECF4FF
00EBA09B
00EA4E20
00E8FD8C
00E7AEDA
00E6620B
00E51718
00E3CE02
00E286C3
00E1415A
00DFFDC7
00DEBC02
00DD7C0D
00DC3DE2
00DB0181
00D9C6E7
00D88E11
00D756FB
00D621A5
00D4EE0C
00D3BC2B
00D28C03
00D15D8F
00D030CE
00CF05BC
00CDDC59
00CCB4A1
00CB8E91
00CA6A27
00C94763
00C8263F
00C706BB
00C5E8D4
00C4CC88
00C3B1D4
00C298B6
00C1812D
00C06B34
00BF56CA
00BE43EE
00BD329D
00BC22D5
00BB1493
00BA07D4
00B8FC98
00B7F2DC
00B6EA9E
00B5E3DB
00B4DE92
00B3DAC0
00B2D864
00B1D77A
00B0D801
00AFD9F7
00AEDD5C
00ADE22A
00ACE861
00ABEFFE
00AAF901
00AA0367
00A90F2D
00A81C52
00A72AD5
00A63AB2
00A54BE8
00A45E74
00A37256
00A2878B
00A19E12
00A0B5E8
009FCF0B
009EE97A
009E0533
009D2234
009C407B
009B6006
009A80D3
0099A2E1
0098C62E
0097EAB8
0097107E
0096377C
00955FB2
0094891F
0093B3C0
0092DF93
00920C97
00913ACA
00906A2A
008F9AB6
008ECC6C
008DFF4B
008D3350
008C687B
008B9EC8
008AD637
008A0EC7
00894874
0088833F
0087BF25
0086FC25
00863A3D
0085796B
0084B9AF
0083FB06
00833D6F
008280E8
0081C56F
00810B05
008051A5
007F9950
007EE205
007E2BC0
007D7682
007CC247
007C0F10
007B5CDA
007AABA3
0079FB6B
00794C31
00789DF2
0077F0AE
00774463
0076990F
0075EEB2
0075454A
00749CD5
0073F552
00734EC0
0072A91D
00720468
0071609F
0070BDC2
00701BCF
006F7AC4
006EDAA2
006E3B64
006D9D0C
006CFF97
006C6304
006BC752
006B2C7F
006A928B
0069F974
0069613A
0068C9DA
00683353
00679DA5
006708CE
006674CC
0065E19E
00654F45
0064BDBE
00642D07
00639D21
00630E09
00627FBE
0061F241
0061658E
0060D9A6
00604E86
005FC42F
005F3A9E
005EB1D3
005E29CC
005DA288
005D1C07
005C9647
005C1148
005B8D07
005B0984
005A86BE
005A04B4
00598365
005902D0
005882F3
005803CE
00578560
005707A7
00568AA3
00560E52
005592B4
005517C8
00549D8C
00542400
0053AB22
005332F2
0052BB6E
00524497
0051CE6A
005158E6
0050E40C
00506FD9
004FFC4D
004F8968
004F1727
004EA58B
004E3491
004DC43A
004D5485
004CE56F
004C76F9
004C0923
004B9BE9
004B2F4D
004AC34D
004A57E8
0049ED1D
004982EB
00491952
0048B051
004847E7
0047E012
004778D3
00471228
0046AC11
0046468C
0045E199
00457D37
00451965
0044B623
0044536F
0043F149
00438FB0
00432EA3
0042CE22
00426E2B
00420EBE
0041AFDA
0041517E
0040F3AA
0040965D
00403996
003FDD54
003F8197
003F265D
003ECBA6
003E7172
003E17BF
003DBE8D
003D65DC
003D0DA9
003CB5F6
003C5EC0
003C0808
003BB1CC
003B5C0C
003B06C7
003AB1FD
003A5DAC
003A09D5
0039B676
0039638F
0039111F
0038BF25
00386DA1
00381C93
0037CBF8
00377BD2
00372C1E
0036DCDD
00368E0E
00363FB0
0035F1C3
0035A446
00355737
00350A98
0034BE67
003472A3
0034274C
0033DC61
003391E2
003347CE
0032FE24
0032B4E4
00326C0D
0032239F
0031DB99
003193FA
00314CC3
003105F1
0030BF86
0030797F
003033DD
002FEE9F
002FA9C5
002F654D
002F2138
002EDD85
002E9A32
002E5741
002E14B0
002DD27E
002D90AB
002D4F37
002D0E21
002CCD69
002C8D0D
002C4D0E
002C0D6B
002BCE23
002B8F36
002B50A4
002B126B
002AD48C
002A9706
002A59D8
002A1D02
0029E083
0029A45C
0029688A
00292D0F
0028F1E9
0028B718
00287C9B
00284273
0028089E
0027CF1C
002795ED
00275D10
00272484
0026EC4A
0026B460
00267CC7
0026457E
00260E84
0025D7D9
0025A17D
00256B6F
002535AE
0025003A
0024CB14
0024963A
002461AB
00242D68
0023F971
0023C5C3
00239261
00235F47
00232C78
0022F9F1
0022C7B3
002295BD
0022640F
002232A8
00220188
0021D0AF
0021A01C
00216FCE
00213FC6
00211003
0020E085
0020B14B
00208255
002053A2
00202532
001FF705
001FC91A
001F9B72
001F6E0A
001F40E4
001F13FF
001EE75B
001EBAF6
001E8ED1
001E62EC
001E3746
001E0BDF
001DE0B5
001DB5CA
001D8B1D
001D60AC
001D3679
001D0C82
001CE2C8
001CB94A
001C9007
001C66FF
001C3E33
001C15A1
001BED49
001BC52B
001B9D47
001B759C
001B4E2A
001B26F1
001AFFF0
001AD927
001AB296
001A8C3C
001A661A
001A402E
001A1A79
0019F4F9
0019CFB0
0019AA9C
001985BE
00196114
00193C9F
0019185F
0018F452
0018D07A
0018ACD5
00188963
00186623
00184317
0018203D
0017FD95
0017DB1F
0017B8DA
001796C6
001774E4
00175332
001731B1
0017105F
0016EF3E
0016CE4C
0016AD89
00168CF6
00166C91
00164C5B
00162C53
00160C79
0015ECCD
0015CD4E
0015ADFD
00158ED8
00156FE1
00155115
00153276
00151403
0014F5BC
0014D7A0
0014B9B0
00149BEA
00147E50
001460DF
0014439A
0014267E
0014098C
0013ECC3
0013D024
0013B3AE
00139761
00137B3C
00135F40
0013436D
001327C1
00130C3D
0012F0E0
0012D5AB
0012BA9C
00129FB5
001284F4
00126A5A
00124FE6
00123598
00121B70
0012016D
0011E790
0011CDD8
0011B444
00119AD6
0011818C
00116866
00114F65
00113687
00111DCD
00110537
0010ECC4
0010D474
0010BC47
0010A43D
00108C55
0010748F
00105CEC
0010456B
00102E0B
001016CD
000FFFB1
