00000A
00000A
00000A
00000A
00000A
00000B
00000B
00000B
00000B
00000B
00000B
00000B
00000C
00000C
00000C
00000C
00000C
00000C
00000C
00000C
00000D
00000D
00000D
00000D
00000D
00000D
00000E
00000E
00000E
00000E
00000E
00000E
00000F
00000F
00000F
00000F
00000F
00000F
000010
000010
000010
000010
000010
000011
000011
000011
000011
000011
000011
000012
000012
000012
000012
000013
000013
000013
000013
000013
000014
000014
000014
000014
000015
000015
000015
000015
000016
000016
000016
000016
000017
000017
000017
000017
000018
000018
000018
000018
000019
000019
000019
00001A
00001A
00001A
00001A
00001B
00001B
00001B
00001C
00001C
00001C
00001D
00001D
00001D
00001E
00001E
00001E
00001F
00001F
00001F
000020
000020
000021
000021
000021
000022
000022
000022
000023
000023
000024
000024
000024
000025
000025
000026
000026
000027
000027
000028
000028
000028
000029
000029
00002A
00002A
00002B
00002B
00002C
00002C
00002D
00002D
00002E
00002E
00002F
00002F
000030
000031
000031
000032
000032
000033
000033
000034
000035
000035
000036
000036
000037
000038
000038
000039
00003A
00003A
00003B
00003C
00003C
00003D
00003E
00003E
00003F
000040
000040
000041
000042
000043
000043
000044
000045
000046
000047
000047
000048
000049
00004A
00004B
00004C
00004C
00004D
00004E
00004F
000050
000051
000052
000053
000054
000055
000056
000056
000057
000058
000059
00005A
00005C
00005D
00005E
00005F
000060
000061
000062
000063
000064
000065
000066
000068
000069
00006A
00006B
00006C
00006E
00006F
000070
000071
000073
000074
000075
000077
000078
000079
00007B
00007C
00007E
00007F
000080
000082
000083
000085
000086
000088
00008A
00008B
00008D
00008E
000090
000091
000093
000095
000097
000098
00009A
00009C
00009D
00009F
0000A1
0000A3
0000A5
0000A7
0000A8
0000AA
0000AC
0000AE
0000B0
0000B2
0000B4
0000B6
0000B8
0000BB
0000BD
0000BF
0000C1
0000C3
0000C5
0000C8
0000CA
0000CC
0000CE
0000D1
0000D3
0000D6
0000D8
0000DA
0000DD
0000DF
0000E2
0000E4
0000E7
0000EA
0000EC
0000EF
0000F2
0000F4
0000F7
0000FA
0000FD
000100
000103
000106
000109
00010C
00010F
000112
000115
000118
00011B
00011E
000122
000125
000128
00012C
00012F
000132
000136
000139
00013D
000140
000144
000148
00014B
00014F
000153
000157
00015B
00015F
000163
000167
00016B
00016F
000173
000177
00017B
000180
000184
000189
00018D
000191
000196
00019B
00019F
0001A4
0001A9
0001AE
0001B2
0001B7
0001BC
0001C1
0001C6
0001CC
0001D1
0001D6
0001DB
0001E1
0001E6
0001EC
0001F1
0001F7
0001FD
000202
000208
00020E
000214
00021A
000220
000226
00022D
000233
000239
000240
000246
00024D
000254
00025A
000261
000268
00026F
000276
00027D
000284
00028C
000293
00029B
0002A2
0002AA
0002B1
0002B9
0002C1
0002C9
0002D1
0002D9
0002E2
0002EA
0002F2
0002FB
000304
00030C
000315
00031E
000327
000330
00033A
000343
00034C
000356
000360
000369
000373
00037D
000387
000392
00039C
0003A6
0003B1
0003BC
0003C7
0003D1
0003DD
0003E8
0003F3
0003FF
00040A
000416
000422
00042E
00043A
000446
000452
00045F
00046C
000478
000485
000492
0004A0
0004AD
0004BB
0004C8
0004D6
0004E4
0004F2
000501
00050F
00051E
00052D
00053C
00054B
00055A
00056A
000579
000589
000599
0005AA
0005BA
0005CB
0005DB
0005EC
0005FE
00060F
000620
000632
000644
000656
000669
00067B
00068E
0006A1
0006B4
0006C8
0006DB
0006EF
000703
000718
00072C
000741
000756
00076B
000781
000797
0007AD
0007C3
0007D9
0007F0
000807
00081E
000836
00084E
000866
00087E
000897
0008B0
0008C9
0008E2
0008FC
000916
000930
00094B
000966
000981
00099D
0009B8
0009D5
0009F1
000A0E
000A2B
000A49
000A66
000A84
000AA3
000AC2
000AE1
000B00
000B20
000B41
000B61
000B82
000BA4
000BC5
000BE7
000C0A
000C2D
000C50
000C74
000C98
000CBC
000CE1
000D06
000D2C
000D52
000D79
000DA0
000DC8
000DEF
000E18
000E41
000E6A
000E94
000EBE
000EE9
000F14
000F40
000F6C
000F98
000FC6
000FF3
001022
001050
001080
0010AF
0010E0
001111
001142
001174
0011A7
0011DA
00120E
001242
001277
0012AC
0012E2
001319
001350
001388
0013C1
0013FA
001434
00146F
0014AA
0014E6
001522
001560
00159E
0015DC
00161B
00165C
00169C
0016DE
001720
001763
0017A7
0017EB
001831
001877
0018BE
001905
00194E
001997
0019E1
001A2C
001A78
001AC5
001B12
001B61
001BB0
001C00
001C52
001CA4
001CF7
001D4B
001D9F
001DF5
001E4C
001EA4
001EFD
001F56
001FB1
00200D
00206A
0020C8
002127
002187
0021E8
00224A
0022AE
002312
002378
0023DF
002446
0024B0
00251A
002585
0025F2
002660
0026CF
002740
0027B1
002824
002899
00290E
002985
0029FE
002A77
002AF2
002B6F
002BED
002C6C
002CED
002D6F
002DF2
002E78
002EFE
002F86
003010
00309B
003128
0031B7
003247
0032D8
00336C
003401
003497
003530
0035CA
003666
003703
0037A3
003844
0038E7
00398C
003A32
003ADB
003B86
003C32
003CE1
003D91
003E43
003EF8
003FAE
004067
004121
0041DE
00429D
00435E
004421
0044E6
0045AE
004678
004744
004813
0048E3
0049B7
004A8C
004B64
004C3F
004D1C
004DFB
004EDD
004FC1
0050A9
005192
00527F
00536E
00545F
005554
00564B
005745
005842
005942
005A44
005B4A
005C52
005D5E
005E6C
005F7E
006092
0061AA
0062C5
0063E3
006505
00662A
006752
00687D
0069AC
006ADE
006C13
006D4D
006E89
006FC9
00710D
007255
0073A0
0074EF
007642
007799
0078F3
007A52
007BB4
007D1A
007E85
007FF3
008166
0082DD
008458
0085D8
00875B
0088E4
008A70
008C01
008D97
008F31
0090D0
009274
00941C
0095C9
00977B
009932
009AEE
009CAF
009E75
00A040
00A210
00A3E6
00A5C1
00A7A1
00A986
00AB72
00AD62
00AF59
00B155
00B357
00B55E
00B76C
00B97F
00BB99
00BDB8
00BFDE
00C20A
00C43C
00C674
00C8B3
00CAF9
00CD45
00CF98
00D1F1
00D451
00D6B9
00D927
00DB9C
00DE18
00E09C
00E326
00E5B9
00E852
00EAF3
00ED9C
00F04C
00F305
00F5C5
00F88D
00FB5D
00FE35
010116
0103FF
0106F0
0109EA
010CEC
010FF7
01130B
011628
01194E
011C7D
011FB5
0122F7
012642
012997
012CF5
01305D
0133CF
01374A
013AD0
013E60
0141FB
0145A0
01494F
014D09
0150CE
01549E
015879
015C5F
016050
01644D
016855
016C69
017089
0174B5
0178ED
017D31
018181
0185DE
018A48
018EBE
019342
0197D2
019C70
01A11B
01A5D3
01AA99
01AF6D
01B44F
01B93F
01BE3E
01C34B
01C866
01CD90
01D2CA
01D812
01DD6A
01E2D1
01E848
01EDCF
01F366
01F90C
01FEC4
02048C
020A64
02104E
021648
021C54
022272
0228A1
022EE2
023536
023B9B
024213
02489E
024F3C
0255ED
025CB1
026389
026A75
027175
027889
027FB2
0286EF
028E42
0295A9
029D26
02A4B9
02AC62
02B421
02BBF6
02C3E2
02CBE5
02D3FF
02DC31
02E47A
02ECDB
02F555
02FDE7
030692
030F57
031834
03212B
032A3D
033368
033CAE
03460F
034F8B
035923
0362D6
036CA6
037692
03809B
038AC0
039503
039F64
03A9E3
03B481
03BF3D
03CA18
03D513
03E02D
03EB68
03F6C3
04023F
040DDC
04199B
04257D
043180
043DA6
0449F0
04565D
0462EE
046FA3
047C7E
04897D
0496A2
04A3EE
04B160
04BEF8
04CCB8
04DAA0
04E8B1
04F6EA
05054C
0513D8
05228E
05316F
05407A
054FB2
055F15
056EA5
057E62
058E4D
059E66
05AEAE
05BF24
05CFCB
05E0A1
05F1A9
0602E1
06144C
0625E9
0637B9
0649BD
065BF5
066E62
068104
0693DC
06A6EA
06BA30
06CDAE
06E164
06F554
07097D
071DE0
07327F
074759
075C70
0771C3
078755
079D25
07B334
07C984
07E013
07F6E5
080DF8
08254E
083CE8
0854C6
086CEA
088553
089E03
08B6FA
08D03A
08E9C3
090396
091DB4
09381D
0952D3
096DD7
098928
09A4C9
09C0BA
09DCFC
09F990
0A1676
0A33B0
0A513F
0A6F24
0A8D5F
0AABF2
0ACADD
0AEA22
0B09C1
0B29BC
0B4A14
0B6ACA
0B8BDE
0BAD52
0BCF27
0BF15E
0C13F8
0C36F7
0C5A5A
0C7E25
0CA257
0CC6F2
0CEBF7
0D1167
0D3744
0D5D8E
0D8447
0DAB71
0DD30C
0DFB1A
0E239B
0E4C93
0E7600
0E9FE6
0ECA46
0EF520
0F2076
0F4C4A
0F789C
0FA56F
0FD2C4
10009D
